<unk>	0
<s>	0
</s>	0
<pad>	0
<0x00>	0
<0x01>	0
<0x02>	0
<0x03>	0
<0x04>	0
<0x05>	0
<0x06>	0
<0x07>	0
<0x08>	0
<0x09>	0
<0x0A>	0
<0x0B>	0
<0x0C>	0
<0x0D>	0
<0x0E>	0
<0x0F>	0
<0x10>	0
<0x11>	0
<0x12>	0
<0x13>	0
<0x14>	0
<0x15>	0
<0x16>	0
<0x17>	0
<0x18>	0
<0x19>	0
<0x1A>	0
<0x1B>	0
<0x1C>	0
<0x1D>	0
<0x1E>	0
<0x1F>	0
<0x20>	0
<0x21>	0
<0x22>	0
<0x23>	0
<0x24>	0
<0x25>	0
<0x26>	0
<0x27>	0
<0x28>	0
<0x29>	0
<0x2A>	0
<0x2B>	0
<0x2C>	0
<0x2D>	0
<0x2E>	0
<0x2F>	0
<0x30>	0
<0x31>	0
<0x32>	0
<0x33>	0
<0x34>	0
<0x35>	0
<0x36>	0
<0x37>	0
<0x38>	0
<0x39>	0
<0x3A>	0
<0x3B>	0
<0x3C>	0
<0x3D>	0
<0x3E>	0
<0x3F>	0
<0x40>	0
<0x41>	0
<0x42>	0
<0x43>	0
<0x44>	0
<0x45>	0
<0x46>	0
<0x47>	0
<0x48>	0
<0x49>	0
<0x4A>	0
<0x4B>	0
<0x4C>	0
<0x4D>	0
<0x4E>	0
<0x4F>	0
<0x50>	0
<0x51>	0
<0x52>	0
<0x53>	0
<0x54>	0
<0x55>	0
<0x56>	0
<0x57>	0
<0x58>	0
<0x59>	0
<0x5A>	0
<0x5B>	0
<0x5C>	0
<0x5D>	0
<0x5E>	0
<0x5F>	0
<0x60>	0
<0x61>	0
<0x62>	0
<0x63>	0
<0x64>	0
<0x65>	0
<0x66>	0
<0x67>	0
<0x68>	0
<0x69>	0
<0x6A>	0
<0x6B>	0
<0x6C>	0
<0x6D>	0
<0x6E>	0
<0x6F>	0
<0x70>	0
<0x71>	0
<0x72>	0
<0x73>	0
<0x74>	0
<0x75>	0
<0x76>	0
<0x77>	0
<0x78>	0
<0x79>	0
<0x7A>	0
<0x7B>	0
<0x7C>	0
<0x7D>	0
<0x7E>	0
<0x7F>	0
<0x80>	0
<0x81>	0
<0x82>	0
<0x83>	0
<0x84>	0
<0x85>	0
<0x86>	0
<0x87>	0
<0x88>	0
<0x89>	0
<0x8A>	0
<0x8B>	0
<0x8C>	0
<0x8D>	0
<0x8E>	0
<0x8F>	0
<0x90>	0
<0x91>	0
<0x92>	0
<0x93>	0
<0x94>	0
<0x95>	0
<0x96>	0
<0x97>	0
<0x98>	0
<0x99>	0
<0x9A>	0
<0x9B>	0
<0x9C>	0
<0x9D>	0
<0x9E>	0
<0x9F>	0
<0xA0>	0
<0xA1>	0
<0xA2>	0
<0xA3>	0
<0xA4>	0
<0xA5>	0
<0xA6>	0
<0xA7>	0
<0xA8>	0
<0xA9>	0
<0xAA>	0
<0xAB>	0
<0xAC>	0
<0xAD>	0
<0xAE>	0
<0xAF>	0
<0xB0>	0
<0xB1>	0
<0xB2>	0
<0xB3>	0
<0xB4>	0
<0xB5>	0
<0xB6>	0
<0xB7>	0
<0xB8>	0
<0xB9>	0
<0xBA>	0
<0xBB>	0
<0xBC>	0
<0xBD>	0
<0xBE>	0
<0xBF>	0
<0xC0>	0
<0xC1>	0
<0xC2>	0
<0xC3>	0
<0xC4>	0
<0xC5>	0
<0xC6>	0
<0xC7>	0
<0xC8>	0
<0xC9>	0
<0xCA>	0
<0xCB>	0
<0xCC>	0
<0xCD>	0
<0xCE>	0
<0xCF>	0
<0xD0>	0
<0xD1>	0
<0xD2>	0
<0xD3>	0
<0xD4>	0
<0xD5>	0
<0xD6>	0
<0xD7>	0
<0xD8>	0
<0xD9>	0
<0xDA>	0
<0xDB>	0
<0xDC>	0
<0xDD>	0
<0xDE>	0
<0xDF>	0
<0xE0>	0
<0xE1>	0
<0xE2>	0
<0xE3>	0
<0xE4>	0
<0xE5>	0
<0xE6>	0
<0xE7>	0
<0xE8>	0
<0xE9>	0
<0xEA>	0
<0xEB>	0
<0xEC>	0
<0xED>	0
<0xEE>	0
<0xEF>	0
<0xF0>	0
<0xF1>	0
<0xF2>	0
<0xF3>	0
<0xF4>	0
<0xF5>	0
<0xF6>	0
<0xF7>	0
<0xF8>	0
<0xF9>	0
<0xFA>	0
<0xFB>	0
<0xFC>	0
<0xFD>	0
<0xFE>	0
<0xFF>	0
he	-0
▁t	-1
▁a	-2
▁s	-3
▁w	-4
nd	-5
▁the	-6
ed	-7
▁and	-8
▁to	-9
▁b	-10
in	-11
▁h	-12
▁wa	-13
re	-14
ou	-15
▁f	-16
it	-17
▁T	-18
▁l	-19
▁c	-20
▁d	-21
er	-22
▁he	-23
▁m	-24
▁p	-25
▁was	-26
om	-27
▁o	-28
▁The	-29
ay	-30
ar	-31
is	-32
ing	-33
il	-34
▁g	-35
id	-36
▁S	-37
at	-38
en	-39
▁n	-40
▁sa	-41
▁ha	-42
an	-43
im	-44
or	-45
on	-46
▁it	-47
▁H	-48
▁th	-49
ll	-50
▁"	-51
le	-52
ot	-53
▁She	-54
▁her	-55
et	-56
ir	-57
▁He	-58
▁They	-59
es	-60
▁in	-61
ver	-62
ut	-63
ow	-64
▁L	-65
ck	-66
▁e	-67
▁u	-68
▁y	-69
ld	-70
oo	-71
ily	-72
▁said	-73
ig	-74
▁r	-75
▁I	-76
▁be	-77
am	-78
▁st	-79
ke	-80
ce	-81
ve	-82
ith	-83
pp	-84
▁she	-85
▁with	-86
▁Lily	-87
▁O	-88
▁on	-89
▁On	-90
▁you	-91
ked	-92
▁of	-93
ri	-94
▁B	-95
▁pl	-96
nt	-97
▁his	-98
ad	-99
▁so	-100
very	-101
▁day	-102
▁that	-103
▁up	-104
▁play	-105
▁had	-106
▁they	-107
st	-108
▁we	-109
▁mom	-110
▁M	-111
▁for	-112
el	-113
un	-114
ould	-115
my	-116
▁li	-117
ch	-118
▁happ	-119
▁want	-120
ent	-121
▁sh	-122
itt	-123
her	-124
out	-125
▁not	-126
▁do	-127
ome	-128
se	-129
▁very	-130
ly	-131
end	-132
all	-133
ound	-134
▁wh	-135
▁k	-136
ime	-137
ittle	-138
▁time	-139
al	-140
▁A	-141
▁little	-142
▁ne	-143
▁there	-144
ht	-145
▁It	-146
▁is	-147
▁happy	-148
▁big	-149
▁re	-150
▁sm	-151
▁but	-152
▁saw	-153
▁an	-154
ra	-155
ry	-156
riend	-157
."	-158
▁friend	-159
▁as	-160
ack	-161
ide	-162
ake	-163
▁One	-164
ug	-165
▁Tim	-166
!"	-167
▁loo	-168
▁were	-169
ter	-170
ved	-171
▁lo	-172
ore	-173
▁Once	-174
▁se	-175
▁too	-176
▁J	-177
▁him	-178
▁bo	-179
▁go	-180
▁are	-181
ec	-182
▁j	-183
▁wanted	-184
ard	-185
irl	-186
ill	-187
▁them	-188
▁Tom	-189
▁Ben	-190
▁upon	-191
▁girl	-192
▁their	-193
▁out	-194
▁at	-195
ind	-196
ur	-197
▁did	-198
way	-199
fu	-200
▁sp	-201
▁could	-202
▁smil	-203
hen	-204
▁have	-205
ain	-206
hed	-207
art	-208
rom	-209
▁ex	-210
▁can	-211
▁went	-212
ic	-213
▁ar	-214
▁W	-215
lp	-216
ood	-217
ful	-218
▁But	-219
▁friends	-220
?"	-221
▁nam	-222
hing	-223
▁kn	-224
ight	-225
▁help	-226
▁all	-227
▁say	-228
one	-229
ark	-230
um	-231
▁back	-232
You	-233
▁fun	-234
▁cl	-235
are	-236
▁no	-237
▁le	-238
▁Timmy	-239
op	-240
▁sc	-241
▁named	-242
▁al	-243
elt	-244
oug	-245
▁man	-246
▁loved	-247
side	-248
▁smiled	-249
▁toy	-250
▁like	-251
ick	-252
▁felt	-253
▁asked	-254
▁fe	-255
▁some	-256
▁see	-257
▁looked	-258
▁me	-259
ame	-260
▁around	-261
▁ro	-262
omet	-263
ure	-264
▁br	-265
▁bir	-266
get	-267
ice	-268
▁boy	-269
▁would	-270
ong	-271
▁start	-272
as	-273
▁bird	-274
▁somet	-275
ings	-276
▁fa	-277
ade	-278
▁make	-279
▁ag	-280
▁what	-281
▁wor	-282
▁Mom	-283
▁You	-284
dd	-285
,"	-286
▁says	-287
king	-288
▁away	-289
▁ran	-290
own	-291
gether	-292
▁tre	-293
ag	-294
ared	-295
ie	-296
oud	-297
▁made	-298
▁started	-299
if	-300
▁car	-301
▁together	-302
▁something	-303
▁co	-304
ther	-305
▁park	-306
▁sad	-307
▁other	-308
ited	-309
▁put	-310
▁new	-311
▁from	-312
ell	-313
▁hug	-314
▁E	-315
▁pr	-316
ble	-317
▁again	-318
ook	-319
▁exc	-320
ach	-321
▁good	-322
▁home	-323
▁la	-324
▁mu	-325
▁F	-326
ss	-327
▁when	-328
▁fl	-329
ried	-330
ep	-331
▁who	-332
est	-333
▁then	-334
▁found	-335
▁ch	-336
▁dec	-337
pped	-338
hat	-339
▁get	-340
▁wal	-341
▁playing	-342
qu	-343
▁sw	-344
ought	-345
nn	-346
▁D	-347
▁liked	-348
uck	-349
▁things	-350
ally	-351
▁Sam	-352
pl	-353
ous	-354
▁Su	-355
▁got	-356
▁bl	-357
▁excited	-358
ro	-359
ided	-360
ave	-361
▁came	-362
ara	-363
▁every	-364
▁decided	-365
▁your	-366
▁Ann	-367
▁dog	-368
ax	-369
▁scared	-370
▁one	-371
▁down	-372
ust	-373
▁v	-374
▁find	-375
▁care	-376
ouse	-377
ap	-378
▁bec	-379
ist	-380
▁than	-381
▁Sara	-382
ny	-383
▁feel	-384
▁Anna	-385
▁dad	-386
▁ab	-387
▁will	-388
▁my	-389
arn	-390
▁look	-391
our	-392
▁gr	-393
▁Max	-394
ers	-395
▁ke	-396
▁gra	-397
▁didn	-398
ways	-399
ess	-400
▁po	-401
▁toys	-402
▁took	-403
fe	-404
nder	-405
▁about	-406
▁ball	-407
▁always	-408
▁lot	-409
▁mommy	-410
ant	-411
▁kne	-412
bb	-413
▁bu	-414
▁tree	-415
ise	-416
▁outside	-417
▁thought	-418
ite	-419
▁more	-420
▁ta	-421
▁So	-422
ened	-423
▁learn	-424
ret	-425
▁ho	-426
ched	-427
▁know	-428
eci	-429
▁pu	-430
▁int	-431
ged	-432
▁sor	-433
▁When	-434
▁cat	-435
▁laug	-436
▁take	-437
▁old	-438
ive	-439
ia	-440
▁speci	-441
▁special	-442
▁knew	-443
▁any	-444
▁pe	-445
▁Her	-446
▁Jo	-447
dden	-448
fter	-449
au	-450
▁how	-451
▁sorry	-452
▁tr	-453
ma	-454
ink	-455
▁show	-456
ish	-457
ddenly	-458
▁run	-459
▁sl	-460
▁much	-461
▁tw	-462
▁hand	-463
▁Every	-464
and	-465
▁or	-466
▁house	-467
▁Jack	-468
▁op	-469
▁mo	-470
▁water	-471
ven	-472
▁sk	-473
▁tried	-474
▁into	-475
▁sun	-476
ank	-477
▁inside	-478
▁clo	-479
ate	-480
▁told	-481
▁gave	-482
ump	-483
ty	-484
▁proud	-485
▁each	-486
▁qu	-487
▁en	-488
▁We	-489
▁if	-490
▁over	-491
▁room	-492
▁couldn	-493
▁heard	-494
here	-495
ace	-496
▁eat	-497
▁never	-498
▁Mia	-499
▁this	-500
▁pret	-501
other	-502
dy	-503
ause	-504
by	-505
ak	-506
▁played	-507
▁pick	-508
ion	-509
sed	-510
etter	-511
▁hugged	-512
▁expl	-513
ge	-514
▁Suddenly	-515
▁Then	-516
▁com	-517
▁gre	-518
▁just	-519
▁nice	-520
▁box	-521
▁From	-522
▁many	-523
▁need	-524
▁wat	-525
oth	-526
▁str	-527
▁because	-528
▁off	-529
▁And	-530
ue	-531
ile	-532
gry	-533
▁small	-534
iz	-535
▁His	-536
ving	-537
▁long	-538
▁jo	-539
▁sn	-540
ine	-541
▁fo	-542
imal	-543
▁animal	-544
▁bear	-545
▁try	-546
ough	-547
ort	-548
uc	-549
urt	-550
▁learned	-551
▁unt	-552
sel	-553
ild	-554
▁love	-555
▁until	-556
▁C	-557
▁kind	-558
ft	-559
▁better	-560
▁flow	-561
▁end	-562
▁te	-563
▁im	-564
urn	-565
▁don	-566
ves	-567
▁cle	-568
▁call	-569
▁best	-570
ady	-571
ars	-572
ream	-573
aut	-574
▁ad	-575
Yes	-576
vent	-577
▁fast	-578
▁careful	-579
urp	-580
arden	-581
▁garden	-582
▁beaut	-583
▁fi	-584
▁cu	-585
ber	-586
▁sky	-587
▁thanked	-588
▁bra	-589
▁even	-590
▁jump	-591
▁loud	-592
ies	-593
ase	-594
pt	-595
▁by	-596
▁laughed	-597
em	-598
▁che	-599
▁â	-600
iny	-601
wn	-602
self	-603
Th	-604
lly	-605
▁gl	-606
▁list	-607
▁come	-608
▁beauti	-609
▁hard	-610
▁still	-611
▁hurt	-612
lew	-613
▁beautiful	-614
▁animals	-615
▁lots	-616
▁fam	-617
▁way	-618
▁wo	-619
▁ra	-620
▁under	-621
hes	-622
▁let	-623
▁P	-624
▁stay	-625
be	-626
ect	-627
▁bad	-628
ning	-629
ct	-630
▁safe	-631
sh	-632
▁col	-633
ool	-634
ast	-635
▁both	-636
ople	-637
ock	-638
▁Joh	-639
kay	-640
▁rem	-641
▁book	-642
▁angry	-643
ished	-644
▁lived	-645
▁its	-646
▁imp	-647
▁As	-648
ree	-649
ress	-650
▁two	-651
It	-652
▁people	-653
ane	-654
▁brave	-655
▁family	-656
▁should	-657
No	-658
▁red	-659
urpr	-660
igh	-661
▁After	-662
▁walked	-663
▁su	-664
▁surpr	-665
▁flew	-666
▁fin	-667
▁stor	-668
▁share	-669
▁dan	-670
▁soon	-671
ucy	-672
▁fly	-673
▁Lucy	-674
xt	-675
ob	-676
▁pic	-677
▁doll	-678
led	-679
▁kept	-680
fore	-681
▁called	-682
ip	-683
▁fore	-684
▁rock	-685
Let	-686
▁clean	-687
▁pretty	-688
ised	-689
▁door	-690
dded	-691
▁shiny	-692
▁G	-693
▁going	-694
▁keep	-695
▁Mommy	-696
▁dra	-697
▁noise	-698
▁now	-699
▁real	-700
▁wind	-701
▁Dad	-702
▁opened	-703
▁John	-704
▁advent	-705
▁turn	-706
▁ide	-707
ummy	-708
so	-709
▁cry	-710
ary	-711
▁before	-712
▁con	-713
age	-714
▁ground	-715
▁also	-716
▁sto	-717
les	-718
illy	-719
▁ey	-720
▁color	-721
▁explore	-722
ied	-723
▁far	-724
▁has	-725
▁idea	-726
▁fr	-727
▁Sp	-728
imb	-729
kes	-730
▁war	-731
th	-732
ture	-733
▁un	-734
What	-735
thing	-736
▁next	-737
▁picked	-738
▁climb	-739
▁nodded	-740
▁smile	-741
aybe	-742
▁thr	-743
oy	-744
▁feeling	-745
▁truck	-746
▁while	-747
▁bed	-748
▁Bob	-749
▁walking	-750
€™	-751
eet	-752
▁wr	-753
▁adventure	-754
ger	-755
Thank	-756
▁picture	-757
ac	-758
▁being	-759
▁think	-760
▁give	-761
▁food	-762
▁ma	-763
ff	-764
iced	-765
▁tra	-766
▁dif	-767
That	-768
▁bre	-769
joy	-770
▁bro	-771
ted	-772
▁tow	-773
ious	-774
▁listen	-775
▁clos	-776
▁eyes	-777
▁N	-778
▁wait	-779
ught	-780
▁own	-781
▁fish	-782
▁stopped	-783
▁after	-784
▁looking	-785
ting	-786
▁R	-787
▁flowers	-788
▁Spot	-789
ember	-790
▁del	-791
▁walk	-792
▁Sue	-793
▁hands	-794
ized	-795
▁blue	-796
▁slide	-797
▁shout	-798
▁repl	-799
▁great	-800
▁ever	-801
▁mean	-802
▁enjoy	-803
▁vo	-804
▁head	-805
irst	-806
ila	-807
oon	-808
▁rain	-809
▁near	-810
▁noticed	-811
▁forest	-812
▁dis	-813
▁us	-814
▁ask	-815
▁import	-816
▁remember	-817
▁quick	-818
bbit	-819
▁sound	-820
▁app	-821
llow	-822
▁okay	-823
▁de	-824
maz	-825
▁work	-826
▁showed	-827
▁wonder	-828
▁ru	-829
▁amaz	-830
▁tal	-831
lease	-832
▁stick	-833
▁tou	-834
▁watch	-835
▁important	-836
bbed	-837
bye	-838
▁strong	-839
We	-840
gan	-841
▁ac	-842
▁everyone	-843
▁bright	-844
day	-845
fere	-846
▁rabbit	-847
▁differe	-848
▁boat	-849
▁our	-850
▁replied	-851
▁right	-852
▁where	-853
▁squ	-854
▁follow	-855
▁use	-856
▁does	-857
▁watched	-858
co	-859
able	-860
▁hop	-861
▁yell	-862
▁face	-863
ath	-864
▁mor	-865
▁quickly	-866
Look	-867
ered	-868
▁store	-869
▁dress	-870
▁Lila	-871
▁sure	-872
▁became	-873
▁been	-874
▁Th	-875
ange	-876
▁place	-877
ng	-878
▁Sarah	-879
▁different	-880
▁child	-881
▁curi	-882
aught	-883
▁warm	-884
▁ye	-885
▁goodbye	-886
▁am	-887
▁mag	-888
▁high	-889
▁voice	-890
▁Jane	-891
▁forg	-892
▁tell	-893
▁block	-894
more	-895
▁cake	-896
leep	-897
▁anymore	-898
ndma	-899
▁closer	-900
▁cook	-901
▁curious	-902
itc	-903
▁fav	-904
ount	-905
▁bel	-906
▁night	-907
▁pull	-908
▁open	-909
ey	-910
ired	-911
imes	-912
▁lea	-913
ached	-914
▁first	-915
▁pain	-916
iss	-917
▁z	-918
▁butter	-919
▁here	-920
▁fell	-921
▁kid	-922
ull	-923
▁grabbed	-924
▁sees	-925
Can	-926
unny	-927
▁sweet	-928
orn	-929
▁only	-930
▁flo	-931
itchen	-932
▁kitchen	-933
▁three	-934
▁sand	-935
▁Everyone	-936
▁In	-937
▁helped	-938
▁birds	-939
▁stop	-940
▁dr	-941
▁cont	-942
▁cra	-943
▁bit	-944
▁ba	-945
▁jumped	-946
▁happened	-947
▁glad	-948
▁fire	-949
▁mon	-950
ppy	-951
▁That	-952
▁sing	-953
▁beh	-954
▁grass	-955
▁tri	-956
▁Do	-957
▁per	-958
▁cr	-959
▁brother	-960
▁realized	-961
isy	-962
▁story	-963
▁shouted	-964
air	-965
▁mess	-966
▁reached	-967
▁soft	-968
akes	-969
▁Let	-970
ass	-971
▁yummy	-972
▁lady	-973
▁game	-974
ins	-975
▁having	-976
nts	-977
Mom	-978
▁draw	-979
▁ate	-980
▁hat	-981
▁prin	-982
▁pretend	-983
zy	-984
▁pap	-985
▁favor	-986
▁through	-987
▁underst	-988
where	-989
▁cre	-990
▁less	-991
▁rest	-992
▁favorite	-993
▁ready	-994
ater	-995
▁thing	-996
▁looks	-997
▁making	-998
ken	-999
▁Can	-1000
ather	-1001
▁magic	-1002
▁kids	-1003
▁Joe	-1004
▁really	-1005
▁duck	-1006
▁pare	-1007
▁tired	-1008
▁pond	-1009
▁fix	-1010
▁cars	-1011
▁cut	-1012
▁world	-1013
▁Tommy	-1014
Wow	-1015
▁done	-1016
▁began	-1017
▁mum	-1018
▁bunny	-1019
▁waved	-1020
bo	-1021
▁himself	-1022
▁catch	-1023
▁butterf	-1024
▁coming	-1025
▁touch	-1026
▁funny	-1027
▁cried	-1028
▁used	-1029
fully	-1030
▁worry	-1031
▁part	-1032
▁Fin	-1033
▁why	-1034
▁prom	-1035
▁name	-1036
ign	-1037
▁another	-1038
▁blocks	-1039
▁fill	-1040
▁flower	-1041
▁ste	-1042
▁hold	-1043
▁fro	-1044
▁hair	-1045
▁tast	-1046
▁top	-1047
▁seen	-1048
▁cool	-1049
ster	-1050
oney	-1051
▁swim	-1052
rel	-1053
▁wished	-1054
eddy	-1055
iver	-1056
▁thank	-1057
▁mouse	-1058
▁floor	-1059
▁green	-1060
▁light	-1061
▁bag	-1062
ient	-1063
▁delic	-1064
▁likes	-1065
▁gi	-1066
▁paper	-1067
▁smell	-1068
▁farm	-1069
▁parents	-1070
▁behind	-1071
▁Sally	-1072
ation	-1073
hy	-1074
▁lesson	-1075
▁dri	-1076
olly	-1077
▁surprise	-1078
▁doing	-1079
Don	-1080
▁hopped	-1081
▁dro	-1082
▁bow	-1083
▁sleep	-1084
▁worked	-1085
▁hole	-1086
ards	-1087
▁window	-1088
uff	-1089
andy	-1090
▁yellow	-1091
▁read	-1092
▁trees	-1093
▁din	-1094
▁dark	-1095
▁full	-1096
▁sho	-1097
▁laugh	-1098
▁running	-1099
aisy	-1100
ike	-1101
ued	-1102
▁Benny	-1103
ely	-1104
▁cold	-1105
ren	-1106
▁swing	-1107
rew	-1108
▁sat	-1109
▁spot	-1110
▁wood	-1111
".	-1112
us	-1113
▁surprised	-1114
▁remembered	-1115
ul	-1116
▁slow	-1117
aring	-1118
▁-	-1119
▁butterfly	-1120
▁happily	-1121
▁lost	-1122
▁set	-1123
▁needed	-1124
ons	-1125
▁ice	-1126
▁years	-1127
▁held	-1128
▁buy	-1129
Hell	-1130
Hello	-1131
▁move	-1132
▁frog	-1133
▁anything	-1134
▁At	-1135
▁wrong	-1136
▁carefully	-1137
▁snow	-1138
▁hear	-1139
▁Em	-1140
▁K	-1141
▁left	-1142
▁tall	-1143
▁There	-1144
▁hun	-1145
ens	-1146
▁perf	-1147
▁dir	-1148
▁dream	-1149
▁fair	-1150
▁followed	-1151
▁Now	-1152
▁air	-1153
▁enjoyed	-1154
▁Billy	-1155
▁el	-1156
▁finished	-1157
▁cast	-1158
▁children	-1159
▁Jim	-1160
cess	-1161
▁bug	-1162
▁books	-1163
▁table	-1164
▁hot	-1165
▁Finally	-1166
▁herself	-1167
ined	-1168
▁Daisy	-1169
▁To	-1170
▁hill	-1171
▁hid	-1172
▁bus	-1173
reed	-1174
▁Jen	-1175
▁arri	-1176
▁understand	-1177
▁friendly	-1178
ds	-1179
▁arm	-1180
▁contin	-1181
▁Gra	-1182
▁close	-1183
▁please	-1184
▁forgot	-1185
ross	-1186
▁might	-1187
▁colors	-1188
▁else	-1189
▁delicious	-1190
▁broken	-1191
▁build	-1192
▁wants	-1193
asure	-1194
▁rel	-1195
sp	-1196
lf	-1197
ash	-1198
▁gone	-1199
▁gent	-1200
ield	-1201
▁baby	-1202
room	-1203
atter	-1204
▁arrived	-1205
▁creat	-1206
▁tight	-1207
▁leaves	-1208
▁able	-1209
▁song	-1210
▁wonderful	-1211
▁someone	-1212
▁yes	-1213
▁wall	-1214
▁Molly	-1215
ner	-1216
▁squir	-1217
▁filled	-1218
av	-1219
▁This	-1220
▁gu	-1221
▁continued	-1222
ich	-1223
ask	-1224
▁lion	-1225
▁count	-1226
▁break	-1227
▁squirrel	-1228
▁Amy	-1229
▁agreed	-1230
▁ju	-1231
▁pink	-1232
▁Maybe	-1233
▁scary	-1234
▁poin	-1235
▁fall	-1236
▁enough	-1237
shed	-1238
▁castle	-1239
icy	-1240
ee	-1241
ries	-1242
▁grandma	-1243
man	-1244
▁vis	-1245
▁stayed	-1246
▁hungry	-1247
▁makes	-1248
▁moment	-1249
▁morning	-1250
▁smiles	-1251
▁finally	-1252
▁wet	-1253
▁fight	-1254
▁comp	-1255
▁cookies	-1256
oup	-1257
▁getting	-1258
▁turned	-1259
▁sometimes	-1260
gon	-1261
row	-1262
app	-1263
▁pictures	-1264
▁pi	-1265
▁talk	-1266
▁beach	-1267
rot	-1268
▁cream	-1269
ama	-1270
▁climbed	-1271
▁What	-1272
▁others	-1273
▁trying	-1274
▁listened	-1275
▁clot	-1276
▁balloon	-1277
oom	-1278
▁dinner	-1279
▁amazing	-1280
▁tail	-1281
▁clothes	-1282
ced	-1283
▁mus	-1284
ere	-1285
▁few	-1286
ance	-1287
apped	-1288
▁mar	-1289
▁met	-1290
▁puppy	-1291
lc	-1292
▁mother	-1293
ence	-1294
▁Jill	-1295
▁daddy	-1296
▁perfect	-1297
oring	-1298
amp	-1299
▁spl	-1300
▁asks	-1301
▁white	-1302
key	-1303
red	-1304
▁fur	-1305
▁alone	-1306
ctor	-1307
uffy	-1308
▁pet	-1309
▁sail	-1310
▁wasn	-1311
ucky	-1312
▁sit	-1313
▁brought	-1314
▁everything	-1315
▁sear	-1316
ister	-1317
▁joy	-1318
▁pol	-1319
der	-1320
▁grow	-1321
ott	-1322
▁roll	-1323
▁strange	-1324
▁pulled	-1325
ated	-1326
▁waited	-1327
▁pie	-1328
wl	-1329
Oh	-1330
▁deep	-1331
▁spark	-1332
▁ride	-1333
▁danger	-1334
▁woods	-1335
But	-1336
▁plan	-1337
▁won	-1338
▁leave	-1339
▁runs	-1340
▁music	-1341
me	-1342
▁amazed	-1343
▁thinks	-1344
▁visit	-1345
This	-1346
zz	-1347
ower	-1348
▁hide	-1349
ang	-1350
▁teddy	-1351
▁cloud	-1352
eter	-1353
▁Soon	-1354
Maybe	-1355
▁fox	-1356
▁pat	-1357
ever	-1358
▁pen	-1359
os	-1360
▁silly	-1361
ugg	-1362
▁flying	-1363
▁living	-1364
ope	-1365
▁shap	-1366
▁em	-1367
▁towards	-1368
gs	-1369
▁treat	-1370
▁owner	-1371
med	-1372
ames	-1373
ises	-1374
▁All	-1375
thy	-1376
▁pre	-1377
▁side	-1378
▁land	-1379
▁grate	-1380
▁field	-1381
ained	-1382
▁lake	-1383
▁shared	-1384
▁money	-1385
▁qui	-1386
▁paint	-1387
cket	-1388
igg	-1389
▁faster	-1390
▁grateful	-1391
▁promised	-1392
▁party	-1393
▁sister	-1394
▁belie	-1395
▁dance	-1396
▁bott	-1397
Okay	-1398
avy	-1399
▁race	-1400
▁moral	-1401
eces	-1402
ix	-1403
▁cup	-1404
cle	-1405
▁treasure	-1406
▁broke	-1407
▁pieces	-1408
▁Fl	-1409
▁job	-1410
▁candy	-1411
▁quiet	-1412
unch	-1413
▁worried	-1414
▁blank	-1415
▁colorful	-1416
sw	-1417
OK	-1418
▁train	-1419
▁bigger	-1420
ze	-1421
▁bran	-1422
▁answ	-1423
orm	-1424
▁slowly	-1425
▁wear	-1426
▁Daddy	-1427
outh	-1428
▁gif	-1429
▁dolls	-1430
▁welc	-1431
ually	-1432
▁reach	-1433
▁blanket	-1434
▁mouth	-1435
ling	-1436
▁must	-1437
▁ve	-1438
uit	-1439
▁snack	-1440
▁Mr	-1441
ol	-1442
▁such	-1443
▁Mama	-1444
▁cho	-1445
▁bike	-1446
fort	-1447
▁ele	-1448
▁everywhere	-1449
▁smart	-1450
ased	-1451
▁scream	-1452
▁pro	-1453
less	-1454
ph	-1455
▁black	-1456
▁river	-1457
▁nap	-1458
ire	-1459
▁plant	-1460
▁bar	-1461
▁join	-1462
▁stu	-1463
▁magical	-1464
▁je	-1465
▁pot	-1466
▁sign	-1467
▁princess	-1468
▁helping	-1469
▁dangerous	-1470
▁Just	-1471
▁win	-1472
▁pa	-1473
cked	-1474
set	-1475
▁threw	-1476
▁dirty	-1477
ming	-1478
▁carrot	-1479
▁Mary	-1480
▁twins	-1481
▁bowl	-1482
▁crying	-1483
▁dragon	-1484
▁tower	-1485
ipped	-1486
▁bite	-1487
▁doctor	-1488
▁hoped	-1489
ored	-1490
Sure	-1491
▁most	-1492
▁teac	-1493
ident	-1494
▁farmer	-1495
▁same	-1496
▁spr	-1497
▁heavy	-1498
▁bee	-1499
▁monkey	-1500
▁monster	-1501
▁words	-1502
▁acc	-1503
bble	-1504
ear	-1505
de	-1506
▁heal	-1507
▁across	-1508
▁coll	-1509
▁bath	-1510
Why	-1511
▁disapp	-1512
Hi	-1513
▁buck	-1514
▁hig	-1515
The	-1516
▁fruit	-1517
▁stepped	-1518
▁stre	-1519
▁closed	-1520
▁stuck	-1521
eared	-1522
▁heart	-1523
▁town	-1524
Mommy	-1525
▁feels	-1526
▁Grandma	-1527
chool	-1528
▁believe	-1529
▁wouldn	-1530
asket	-1531
▁basket	-1532
▁mix	-1533
▁teacher	-1534
▁cray	-1535
▁cour	-1536
▁att	-1537
▁butt	-1538
▁eating	-1539
▁hit	-1540
▁school	-1541
▁Emma	-1542
iting	-1543
▁chair	-1544
▁pushed	-1545
▁yard	-1546
▁brown	-1547
▁gentle	-1548
▁pack	-1549
▁min	-1550
▁course	-1551
▁neigh	-1552
▁without	-1553
br	-1554
▁clapped	-1555
issed	-1556
ord	-1557
▁Mum	-1558
ts	-1559
umb	-1560
▁higher	-1561
▁Jimmy	-1562
▁pers	-1563
pping	-1564
▁smo	-1565
▁sec	-1566
▁neighb	-1567
▁accident	-1568
▁swings	-1569
▁fairy	-1570
ier	-1571
vel	-1572
▁today	-1573
▁games	-1574
▁welcome	-1575
orrow	-1576
▁dry	-1577
▁Inside	-1578
▁stand	-1579
▁noises	-1580
ors	-1581
▁drove	-1582
▁pocket	-1583
▁throw	-1584
ventually	-1585
▁suddenly	-1586
▁forget	-1587
▁lon	-1588
▁turns	-1589
▁hugs	-1590
▁piece	-1591
▁cheered	-1592
ract	-1593
▁Their	-1594
▁ben	-1595
▁free	-1596
▁lonely	-1597
▁happen	-1598
▁fence	-1599
cy	-1600
▁wings	-1601
▁Wh	-1602
ourn	-1603
▁neck	-1604
▁longer	-1605
▁journ	-1606
▁sang	-1607
ible	-1608
▁explained	-1609
ead	-1610
▁soup	-1611
▁along	-1612
▁sea	-1613
▁corn	-1614
▁stories	-1615
▁late	-1616
▁upset	-1617
▁well	-1618
itting	-1619
▁shoes	-1620
▁inst	-1621
▁secret	-1622
▁adventures	-1623
▁miss	-1624
▁mat	-1625
phant	-1626
▁Fluffy	-1627
▁trou	-1628
▁caught	-1629
▁stars	-1630
▁whe	-1631
ches	-1632
▁singing	-1633
▁ph	-1634
oun	-1635
▁rocks	-1636
▁bucket	-1637
▁lunch	-1638
ape	-1639
ces	-1640
▁dropped	-1641
▁swam	-1642
▁Sammy	-1643
▁dist	-1644
▁wish	-1645
▁young	-1646
▁shook	-1647
ocked	-1648
▁elephant	-1649
▁drink	-1650
▁bring	-1651
▁moved	-1652
yard	-1653
ment	-1654
▁plac	-1655
▁belong	-1656
aughty	-1657
▁juice	-1658
ountain	-1659
▁Thank	-1660
▁star	-1661
▁naughty	-1662
▁backyard	-1663
ek	-1664
llo	-1665
▁mine	-1666
fused	-1667
▁jar	-1668
▁street	-1669
bow	-1670
▁tom	-1671
▁past	-1672
▁key	-1673
▁takes	-1674
▁taking	-1675
▁apple	-1676
▁shapes	-1677
▁purp	-1678
▁orange	-1679
▁owl	-1680
▁exploring	-1681
ward	-1682
▁shop	-1683
Lily	-1684
▁cou	-1685
▁Tw	-1686
Do	-1687
▁exp	-1688
▁nearby	-1689
▁pig	-1690
bby	-1691
▁Later	-1692
▁wise	-1693
▁nose	-1694
▁wondered	-1695
▁woke	-1696
ung	-1697
▁resp	-1698
▁es	-1699
▁comes	-1700
▁seemed	-1701
▁cow	-1702
▁busy	-1703
▁af	-1704
col	-1705
▁des	-1706
▁mail	-1707
▁sounds	-1708
▁bench	-1709
▁tiny	-1710
▁relie	-1711
▁sick	-1712
▁inv	-1713
▁purple	-1714
cing	-1715
▁mark	-1716
▁rainbow	-1717
sy	-1718
aughter	-1719
▁arms	-1720
▁though	-1721
ose	-1722
adow	-1723
▁nest	-1724
ions	-1725
fish	-1726
▁mad	-1727
ining	-1728
▁mil	-1729
▁year	-1730
thday	-1731
pper	-1732
▁3	-1733
ese	-1734
▁sitting	-1735
cks	-1736
▁ob	-1737
▁driver	-1738
▁holding	-1739
▁carry	-1740
▁round	-1741
▁king	-1742
raid	-1743
read	-1744
▁afraid	-1745
ity	-1746
ittens	-1747
▁branch	-1748
▁forever	-1749
ale	-1750
▁cir	-1751
▁whist	-1752
▁hello	-1753
▁gift	-1754
▁kite	-1755
▁spoon	-1756
board	-1757
▁boun	-1758
ost	-1759
vered	-1760
▁cute	-1761
▁daughter	-1762
▁peace	-1763
▁shell	-1764
▁lift	-1765
▁nothing	-1766
idge	-1767
to	-1768
▁fit	-1769
▁coat	-1770
og	-1771
▁swimming	-1772
▁huge	-1773
▁Come	-1774
▁With	-1775
▁touched	-1776
▁patient	-1777
▁bread	-1778
ours	-1779
Of	-1780
let	-1781
▁letter	-1782
▁Al	-1783
▁birthday	-1784
▁grab	-1785
▁promise	-1786
▁relieved	-1787
cer	-1788
sting	-1789
▁accidentally	-1790
▁gives	-1791
▁wra	-1792
eth	-1793
▁band	-1794
▁puts	-1795
▁Ell	-1796
▁hope	-1797
▁milk	-1798
▁bottle	-1799
▁creature	-1800
Hey	-1801
gg	-1802
▁fing	-1803
shine	-1804
▁days	-1805
▁intere	-1806
▁cheese	-1807
▁life	-1808
▁gigg	-1809
▁laughing	-1810
▁cozy	-1811
▁collect	-1812
alm	-1813
▁Tweet	-1814
▁lucky	-1815
▁bush	-1816
▁onto	-1817
▁exciting	-1818
▁kick	-1819
▁ret	-1820
▁mist	-1821
▁power	-1822
▁spin	-1823
▁cave	-1824
▁comfort	-1825
▁disco	-1826
▁journey	-1827
▁act	-1828
▁sunshine	-1829
▁sunny	-1830
gged	-1831
▁fan	-1832
▁Jenny	-1833
▁ear	-1834
▁instead	-1835
▁return	-1836
ped	-1837
ten	-1838
arp	-1839
ness	-1840
▁pointed	-1841
▁pudd	-1842
▁inc	-1843
▁smiling	-1844
▁imag	-1845
ize	-1846
▁eas	-1847
▁searched	-1848
els	-1849
itch	-1850
▁road	-1851
▁honey	-1852
▁sharp	-1853
▁anyone	-1854
▁hor	-1855
▁talked	-1856
▁spo	-1857
oman	-1858
ball	-1859
▁bought	-1860
▁later	-1861
▁suc	-1862
▁woman	-1863
▁sandw	-1864
▁plane	-1865
▁gather	-1866
blem	-1867
ub	-1868
▁problem	-1869
▁snowman	-1870
▁person	-1871
▁watching	-1872
mer	-1873
unt	-1874
▁crayons	-1875
▁healthy	-1876
▁smelled	-1877
▁rope	-1878
▁tasty	-1879
irt	-1880
▁trouble	-1881
Good	-1882
▁meet	-1883
▁ce	-1884
▁Ch	-1885
▁ducks	-1886
round	-1887
▁pop	-1888
▁loves	-1889
▁kiss	-1890
▁Somet	-1891
▁pile	-1892
itten	-1893
▁clouds	-1894
een	-1895
▁ent	-1896
▁apples	-1897
▁shining	-1898
▁par	-1899
ove	-1900
▁storm	-1901
▁spid	-1902
▁button	-1903
▁interesting	-1904
▁Emily	-1905
▁How	-1906
▁Re	-1907
▁mach	-1908
▁zoom	-1909
▁organ	-1910
amed	-1911
▁card	-1912
▁adm	-1913
▁pres	-1914
▁zoo	-1915
▁clever	-1916
▁wide	-1917
▁Mittens	-1918
▁res	-1919
ont	-1920
▁feather	-1921
owed	-1922
▁matter	-1923
▁pill	-1924
ndp	-1925
▁hon	-1926
▁bark	-1927
▁pract	-1928
aur	-1929
▁prot	-1930
▁ap	-1931
▁eag	-1932
▁front	-1933
▁respect	-1934
▁screamed	-1935
epend	-1936
▁goes	-1937
ail	-1938
▁mud	-1939
▁seat	-1940
▁protect	-1941
▁neighbor	-1942
▁saf	-1943
▁shr	-1944
▁quest	-1945
▁danced	-1946
▁sur	-1947
▁horse	-1948
isa	-1949
▁trip	-1950
eb	-1951
▁answer	-1952
▁puzz	-1953
▁asleep	-1954
▁vill	-1955
▁present	-1956
▁myster	-1957
▁spotted	-1958
▁St	-1959
▁tries	-1960
▁appeared	-1961
▁snake	-1962
Come	-1963
erly	-1964
▁whole	-1965
▁teach	-1966
▁path	-1967
▁Jake	-1968
▁giant	-1969
▁wild	-1970
▁lovely	-1971
ching	-1972
▁cheer	-1973
▁phone	-1974
▁slid	-1975
▁places	-1976
▁which	-1977
œI	-1978
▁wearing	-1979
▁di	-1980
up	-1981
▁teeth	-1982
▁Go	-1983
▁dirt	-1984
▁rolled	-1985
▁forgive	-1986
oose	-1987
▁confused	-1988
izz	-1989
▁Together	-1990
ular	-1991
▁Lisa	-1992
▁minut	-1993
▁tasted	-1994
ones	-1995
▁gently	-1996
▁impress	-1997
▁val	-1998
▁tun	-1999
▁couch	-2000
▁faces	-2001
▁thin	-2002
▁rude	-2003
ert	-2004
ssed	-2005
▁calm	-2006
▁pass	-2007
▁live	-2008
▁mind	-2009
itty	-2010
ndpa	-2011
▁spent	-2012
▁splas	-2013
▁Le	-2014
▁pretended	-2015
▁pan	-2016
cean	-2017
▁med	-2018
▁ocean	-2019
▁ash	-2020
▁feet	-2021
▁supp	-2022
▁lad	-2023
nic	-2024
▁sal	-2025
▁pour	-2026
▁ser	-2027
▁picnic	-2028
▁lay	-2029
▁coin	-2030
▁machine	-2031
unk	-2032
▁sack	-2033
▁corner	-2034
▁Sometimes	-2035
▁ring	-2036
▁drive	-2037
▁write	-2038
▁worm	-2039
▁bugs	-2040
▁spider	-2041
▁oven	-2042
▁push	-2043
▁wave	-2044
▁emb	-2045
▁chocol	-2046
Tom	-2047
▁building	-2048
▁smooth	-2049
▁last	-2050
▁ign	-2051
▁tomorrow	-2052
▁cookie	-2053
▁helpful	-2054
▁ca	-2055
umber	-2056
arge	-2057
▁cart	-2058
▁cann	-2059
▁hiding	-2060
▁Be	-2061
▁rec	-2062
▁wip	-2063
als	-2064
▁Bu	-2065
▁furry	-2066
▁ladder	-2067
▁remind	-2068
la	-2069
▁cannot	-2070
lex	-2071
▁mountain	-2072
ator	-2073
▁blew	-2074
▁tid	-2075
▁ban	-2076
▁bell	-2077
▁bubble	-2078
ato	-2079
▁chick	-2080
▁paw	-2081
▁spread	-2082
▁talking	-2083
ife	-2084
▁fold	-2085
▁fighting	-2086
▁finish	-2087
▁tool	-2088
▁delight	-2089
▁embar	-2090
▁leaf	-2091
▁embarra	-2092
▁sel	-2093
▁pool	-2094
▁wore	-2095
▁rob	-2096
▁foot	-2097
▁puddle	-2098
▁songs	-2099
▁shy	-2100
▁knee	-2101
▁spray	-2102
▁eventually	-2103
ighed	-2104
▁rep	-2105
▁neckl	-2106
▁waiting	-2107
▁maybe	-2108
▁chocolate	-2109
▁net	-2110
▁chased	-2111
▁bat	-2112
▁whenever	-2113
▁fixed	-2114
oph	-2115
▁stret	-2116
▁barked	-2117
▁Everywhere	-2118
▁large	-2119
ult	-2120
▁string	-2121
▁selfish	-2122
▁coo	-2123
▁sol	-2124
▁Please	-2125
lebr	-2126
▁Teddy	-2127
▁wash	-2128
▁Some	-2129
▁stir	-2130
▁Peter	-2131
▁peaceful	-2132
▁celebr	-2133
▁whistle	-2134
per	-2135
▁carrots	-2136
urse	-2137
▁ant	-2138
▁spe	-2139
▁cross	-2140
St	-2141
▁creative	-2142
▁plate	-2143
▁taste	-2144
▁banan	-2145
▁hum	-2146
▁robot	-2147
▁tidy	-2148
▁gen	-2149
▁moon	-2150
▁knocked	-2151
▁Z	-2152
▁crab	-2153
▁'	-2154
▁trust	-2155
orry	-2156
▁While	-2157
▁hears	-2158
▁tells	-2159
box	-2160
▁cloth	-2161
My	-2162
▁village	-2163
ungle	-2164
▁missed	-2165
▁stone	-2166
iger	-2167
▁colour	-2168
▁stra	-2169
airs	-2170
▁jungle	-2171
▁embarrassed	-2172
▁Little	-2173
▁step	-2174
▁rocket	-2175
▁decor	-2176
old	-2177
Please	-2178
▁spicy	-2179
▁necklace	-2180
elly	-2181
▁treats	-2182
▁shelf	-2183
▁scar	-2184
▁hel	-2185
getable	-2186
umpy	-2187
arm	-2188
▁shirt	-2189
▁forward	-2190
▁vegetable	-2191
ush	-2192
▁splash	-2193
dge	-2194
▁tea	-2195
▁sticks	-2196
▁emp	-2197
▁legs	-2198
▁Sus	-2199
oin	-2200
▁empty	-2201
▁save	-2202
▁jumping	-2203
▁ple	-2204
▁Rex	-2205
▁nut	-2206
▁gray	-2207
▁sharing	-2208
▁whis	-2209
▁grew	-2210
▁ber	-2211
▁sheep	-2212
▁Johnn	-2213
▁tightly	-2214
aking	-2215
▁landed	-2216
most	-2217
▁Mummy	-2218
▁gener	-2219
▁meant	-2220
▁deter	-2221
▁bal	-2222
▁ashamed	-2223
▁nods	-2224
▁disappoin	-2225
▁pillow	-2226
▁determ	-2227
▁almost	-2228
ird	-2229
▁TV	-2230
▁honest	-2231
ying	-2232
▁Don	-2233
▁pizz	-2234
▁Even	-2235
ian	-2236
▁Why	-2237
▁gold	-2238
▁jew	-2239
▁sour	-2240
▁carried	-2241
dle	-2242
▁breath	-2243
▁Leo	-2244
▁meadow	-2245
▁understood	-2246
▁Alice	-2247
▁Johnny	-2248
ano	-2249
▁yelled	-2250
▁stood	-2251
▁these	-2252
▁van	-2253
▁police	-2254
▁drew	-2255
▁seed	-2256
den	-2257
▁pay	-2258
Stop	-2259
ground	-2260
▁kitten	-2261
▁snacks	-2262
▁prince	-2263
ned	-2264
▁success	-2265
▁fear	-2266
▁sparkly	-2267
gly	-2268
▁bored	-2269
erp	-2270
▁av	-2271
▁lem	-2272
Ben	-2273
ital	-2274
aul	-2275
▁gun	-2276
▁ugly	-2277
ony	-2278
▁gas	-2279
▁shore	-2280
▁vase	-2281
▁hosp	-2282
▁disappointed	-2283
hin	-2284
▁line	-2285
ork	-2286
ustr	-2287
kin	-2288
▁hours	-2289
▁hospital	-2290
▁group	-2291
▁class	-2292
ho	-2293
▁pizza	-2294
vous	-2295
itter	-2296
▁seek	-2297
▁plants	-2298
iff	-2299
▁blow	-2300
▁knowing	-2301
▁Mark	-2302
▁hidden	-2303
▁generous	-2304
▁returned	-2305
▁cries	-2306
▁tent	-2307
▁puzzle	-2308
oop	-2309
▁easy	-2310
▁pri	-2311
▁messy	-2312
▁poor	-2313
▁sleepy	-2314
▁frustr	-2315
▁glass	-2316
▁Bl	-2317
▁feed	-2318
▁standing	-2319
▁pin	-2320
▁waves	-2321
▁test	-2322
▁sighed	-2323
▁jelly	-2324
▁fancy	-2325
▁sandwich	-2326
▁burn	-2327
▁flag	-2328
Sorry	-2329
▁thankful	-2330
▁bedroom	-2331
▁powerful	-2332
▁ship	-2333
▁tick	-2334
▁taught	-2335
body	-2336
▁scarf	-2337
▁ner	-2338
Where	-2339
▁sold	-2340
▁kissed	-2341
▁circ	-2342
▁crown	-2343
▁pir	-2344
lower	-2345
▁twirl	-2346
▁boring	-2347
▁deer	-2348
▁mot	-2349
ote	-2350
▁nervous	-2351
era	-2352
▁reg	-2353
erpill	-2354
▁caterpill	-2355
▁mysterious	-2356
▁tears	-2357
mb	-2358
▁spoil	-2359
▁frustrated	-2360
▁polite	-2361
arl	-2362
work	-2363
assed	-2364
af	-2365
▁scr	-2366
▁passed	-2367
Are	-2368
▁Br	-2369
▁closet	-2370
oof	-2371
▁often	-2372
▁Bo	-2373
▁Today	-2374
▁yourself	-2375
▁hur	-2376
▁drop	-2377
▁minutes	-2378
▁hang	-2379
▁determined	-2380
▁leg	-2381
▁fig	-2382
▁gets	-2383
▁clown	-2384
▁rad	-2385
pack	-2386
ensive	-2387
▁excite	-2388
selves	-2389
▁fil	-2390
▁gate	-2391
issors	-2392
▁cap	-2393
▁expensive	-2394
▁bridge	-2395
▁chew	-2396
▁dancing	-2397
ina	-2398
iddle	-2399
▁chest	-2400
▁gathered	-2401
light	-2402
▁picks	-2403
▁scissors	-2404
▁flut	-2405
▁saved	-2406
▁finger	-2407
ets	-2408
illed	-2409
▁wagged	-2410
▁OK	-2411
ates	-2412
ual	-2413
▁esc	-2414
izzy	-2415
▁caterpillar	-2416
▁wolf	-2417
▁boss	-2418
osaur	-2419
▁wander	-2420
▁grumpy	-2421
▁drum	-2422
▁comfortable	-2423
▁No	-2424
▁lock	-2425
▁Susie	-2426
▁packed	-2427
ond	-2428
▁queen	-2429
▁answered	-2430
▁hopping	-2431
▁working	-2432
ots	-2433
▁spend	-2434
▁dogs	-2435
▁mistake	-2436
▁excitement	-2437
▁lit	-2438
▁mummy	-2439
▁dinosaur	-2440
▁stuff	-2441
▁taken	-2442
▁cand	-2443
▁knight	-2444
▁vegetables	-2445
▁medic	-2446
▁Kitty	-2447
▁wheel	-2448
uce	-2449
▁drawing	-2450
▁walks	-2451
▁pus	-2452
▁middle	-2453
▁press	-2454
▁bone	-2455
ggs	-2456
▁true	-2457
▁eggs	-2458
que	-2459
▁lazy	-2460
▁giggled	-2461
▁lose	-2462
▁crawl	-2463
▁ones	-2464
▁ruined	-2465
▁mir	-2466
▁fruits	-2467
▁wis	-2468
▁dest	-2469
▁clap	-2470
▁medicine	-2471
ugar	-2472
▁add	-2473
▁number	-2474
▁bathroom	-2475
▁smelly	-2476
ecially	-2477
iness	-2478
▁asking	-2479
Who	-2480
▁Blue	-2481
▁exam	-2482
▁fake	-2483
▁feathers	-2484
▁sugar	-2485
▁sight	-2486
▁brush	-2487
▁stones	-2488
▁gar	-2489
pecially	-2490
▁sweetie	-2491
▁licked	-2492
▁especially	-2493
▁tape	-2494
ror	-2495
aser	-2496
▁team	-2497
▁weak	-2498
▁change	-2499
▁body	-2500
▁distance	-2501
▁nod	-2502
ella	-2503
▁roar	-2504
▁drank	-2505
▁pleased	-2506
▁lead	-2507
elp	-2508
▁match	-2509
▁bake	-2510
▁pray	-2511
▁cri	-2512
▁cage	-2513
▁splashed	-2514
▁Eventually	-2515
▁fluffy	-2516
▁If	-2517
▁balls	-2518
▁mic	-2519
▁yours	-2520
▁mov	-2521
ating	-2522
▁lying	-2523
▁calling	-2524
aged	-2525
▁fis	-2526
▁sailed	-2527
▁moving	-2528
uggest	-2529
▁glow	-2530
▁Dan	-2531
▁lemon	-2532
▁tie	-2533
▁suggest	-2534
▁disappeared	-2535
▁board	-2536
▁noisy	-2537
▁Rose	-2538
▁sell	-2539
▁wrote	-2540
hip	-2541
▁glue	-2542
▁soap	-2543
▁clear	-2544
ete	-2545
▁relax	-2546
ha	-2547
▁rid	-2548
▁week	-2549
▁ok	-2550
Help	-2551
▁eld	-2552
▁become	-2553
▁decide	-2554
▁incred	-2555
▁moms	-2556
▁measure	-2557
▁juicy	-2558
▁U	-2559
▁mirror	-2560
▁covered	-2561
alous	-2562
▁playground	-2563
Now	-2564
▁shows	-2565
▁jealous	-2566
yal	-2567
▁questions	-2568
▁horn	-2569
▁fine	-2570
▁Bobby	-2571
▁rare	-2572
▁content	-2573
▁boys	-2574
▁craw	-2575
ination	-2576
▁eager	-2577
▁crawled	-2578
▁towel	-2579
▁check	-2580
ipp	-2581
▁dig	-2582
▁skipped	-2583
▁father	-2584
▁ind	-2585
▁cleaned	-2586
▁Mrs	-2587
▁ord	-2588
▁ext	-2589
▁famous	-2590
▁eye	-2591
▁twist	-2592
▁Ella	-2593
▁needs	-2594
▁shoot	-2595
▁End	-2596
▁joke	-2597
▁garage	-2598
▁incredible	-2599
imp	-2600
▁trucks	-2601
eez	-2602
▁ed	-2603
umbled	-2604
▁bubbles	-2605
▁sword	-2606
▁loyal	-2607
illi	-2608
▁hose	-2609
ory	-2610
▁map	-2611
▁organized	-2612
▁happening	-2613
▁realised	-2614
ti	-2615
▁branches	-2616
▁unus	-2617
▁word	-2618
fic	-2619
▁lamp	-2620
▁tag	-2621
▁discovered	-2622
▁Pete	-2623
▁motor	-2624
▁unusual	-2625
▁dish	-2626
▁borrow	-2627
ipper	-2628
▁once	-2629
▁hurts	-2630
▁tiger	-2631
▁wand	-2632
▁extra	-2633
Be	-2634
▁sil	-2635
▁frown	-2636
cil	-2637
▁rich	-2638
▁knife	-2639
▁elderly	-2640
▁thick	-2641
▁pencil	-2642
ddy	-2643
▁mod	-2644
▁balloons	-2645
lies	-2646
▁whale	-2647
▁cover	-2648
▁diffic	-2649
▁figure	-2650
▁louder	-2651
▁cost	-2652
Me	-2653
asing	-2654
ique	-2655
▁four	-2656
▁guess	-2657
▁bottom	-2658
keep	-2659
port	-2660
▁difficult	-2661
▁aw	-2662
▁toug	-2663
▁Mandy	-2664
▁laughs	-2665
▁colourful	-2666
▁flash	-2667
▁unique	-2668
▁ang	-2669
▁arg	-2670
▁chase	-2671
▁compet	-2672
▁offered	-2673
▁balance	-2674
fast	-2675
▁boxes	-2676
▁shake	-2677
imed	-2678
▁ham	-2679
cept	-2680
▁spun	-2681
▁added	-2682
ery	-2683
▁turt	-2684
▁wrapped	-2685
▁hero	-2686
▁barn	-2687
▁jewel	-2688
▁adventur	-2689
▁Brown	-2690
▁berries	-2691
ately	-2692
▁kindness	-2693
▁coins	-2694
▁straw	-2695
▁giving	-2696
▁breakfast	-2697
▁chicken	-2698
?".	-2699
▁log	-2700
▁bloom	-2701
▁banana	-2702
▁Ellie	-2703
ature	-2704
▁bald	-2705
▁goat	-2706
ages	-2707
ured	-2708
▁mighty	-2709
rag	-2710
▁norm	-2711
▁adventurous	-2712
▁swan	-2713
▁dolp	-2714
ye	-2715
▁managed	-2716
▁fool	-2717
▁falls	-2718
land	-2719
▁tough	-2720
▁lifted	-2721
ym	-2722
▁pump	-2723
▁pointing	-2724
▁cher	-2725
ject	-2726
▁helps	-2727
uggled	-2728
▁dizzy	-2729
▁circle	-2730
Well	-2731
▁pee	-2732
Tim	-2733
alk	-2734
▁wagon	-2735
▁Mar	-2736
olog	-2737
▁harder	-2738
▁Bella	-2739
▁dreamed	-2740
▁My	-2741
▁smoke	-2742
ouses	-2743
keeper	-2744
▁competit	-2745
▁weird	-2746
▁melt	-2747
▁loudly	-2748
▁normal	-2749
▁belonged	-2750
Here	-2751
oppy	-2752
▁bossy	-2753
▁grown	-2754
▁market	-2755
▁impressed	-2756
▁fat	-2757
▁ears	-2758
▁skin	-2759
▁wrap	-2760
▁Fred	-2761
▁apolog	-2762
▁shape	-2763
ilt	-2764
▁hats	-2765
▁knows	-2766
▁icy	-2767
▁stubb	-2768
▁learning	-2769
▁Dave	-2770
emo	-2771
▁against	-2772
▁search	-2773
▁depend	-2774
▁Nemo	-2775
▁hunt	-2776
▁scare	-2777
▁enjoying	-2778
▁houses	-2779
pes	-2780
▁means	-2781
anged	-2782
▁harm	-2783
▁favour	-2784
▁slipped	-2785
▁brothers	-2786
head	-2787
▁rough	-2788
▁edge	-2789
▁painting	-2790
reen	-2791
▁choose	-2792
▁grace	-2793
▁brilli	-2794
▁record	-2795
▁Mike	-2796
▁fright	-2797
▁buttons	-2798
▁stubborn	-2799
▁ref	-2800
apping	-2801
ready	-2802
▁Ducky	-2803
▁whisp	-2804
▁favourite	-2805
▁foolish	-2806
▁jack	-2807
▁safely	-2808
▁shells	-2809
▁brilliant	-2810
▁batter	-2811
▁cudd	-2812
▁toast	-2813
▁fridge	-2814
▁circles	-2815
omed	-2816
▁space	-2817
▁stri	-2818
iv	-2819
▁guit	-2820
▁cro	-2821
▁ter	-2822
rage	-2823
▁happiness	-2824
▁already	-2825
▁rat	-2826
▁turtle	-2827
▁bitter	-2828
erry	-2829
▁walls	-2830
aw	-2831
▁office	-2832
▁yog	-2833
▁libr	-2834
▁law	-2835
▁wake	-2836
▁sounded	-2837
▁island	-2838
edient	-2839
▁mixed	-2840
▁strawber	-2841
▁dreams	-2842
▁saying	-2843
▁clay	-2844
▁egg	-2845
▁crack	-2846
▁Bobo	-2847
▁cheerful	-2848
ext	-2849
arth	-2850
erg	-2851
▁trunk	-2852
iable	-2853
▁bags	-2854
▁roof	-2855
▁unl	-2856
▁cam	-2857
▁valu	-2858
▁smaller	-2859
▁movie	-2860
▁escape	-2861
ache	-2862
▁fier	-2863
▁nosy	-2864
▁guitar	-2865
▁excla	-2866
▁shark	-2867
▁accept	-2868
▁poured	-2869
▁notice	-2870
▁parrot	-2871
▁cab	-2872
▁stronger	-2873
▁stream	-2874
▁obedient	-2875
▁magn	-2876
▁tunn	-2877
sc	-2878
▁crayon	-2879
▁invited	-2880
▁weal	-2881
▁nicely	-2882
▁exclaimed	-2883
▁useful	-2884
▁dependable	-2885
arry	-2886
▁reliable	-2887
▁suggested	-2888
▁cabin	-2889
▁tools	-2890
▁fierce	-2891
▁thu	-2892
▁times	-2893
▁Tweety	-2894
▁low	-2895
▁Soph	-2896
▁proudly	-2897
▁terri	-2898
▁counted	-2899
▁scrat	-2900
▁fingers	-2901
▁city	-2902
▁rose	-2903
▁independ	-2904
ado	-2905
▁showing	-2906
▁study	-2907
ola	-2908
▁pil	-2909
▁lean	-2910
irp	-2911
▁Joey	-2912
▁bushes	-2913
▁Kim	-2914
▁design	-2915
▁above	-2916
▁explored	-2917
na	-2918
wards	-2919
▁tummy	-2920
▁birdie	-2921
▁joined	-2922
▁hoop	-2923
▁frightened	-2924
corn	-2925
▁dead	-2926
▁stumbled	-2927
▁twig	-2928
rell	-2929
▁gem	-2930
▁kicked	-2931
▁fountain	-2932
▁spinning	-2933
cu	-2934
▁spoiled	-2935
cient	-2936
▁frag	-2937
▁dough	-2938
▁locked	-2939
▁lights	-2940
▁successful	-2941
▁stove	-2942
▁using	-2943
▁themselves	-2944
▁cop	-2945
▁wiped	-2946
kn	-2947
▁mem	-2948
▁jog	-2949
▁brightly	-2950
ormous	-2951
▁enormous	-2952
▁excitedly	-2953
az	-2954
▁zip	-2955
▁rode	-2956
▁valuable	-2957
▁tele	-2958
▁independent	-2959
amond	-2960
▁ancient	-2961
▁swe	-2962
▁beak	-2963
▁yarn	-2964
▁Grandpa	-2965
œLet	-2966
▁cleaning	-2967
▁fre	-2968
▁Your	-2969
▁thoughtful	-2970
▁Whenever	-2971
▁kinds	-2972
▁delicate	-2973
▁built	-2974
anut	-2975
ention	-2976
▁jam	-2977
▁seem	-2978
▁eng	-2979
▁diamond	-2980
▁reminded	-2981
ither	-2982
▁Lola	-2983
▁ow	-2984
▁steal	-2985
inal	-2986
▁popcorn	-2987
ipe	-2988
▁shadow	-2989
▁thirst	-2990
orge	-2991
▁holds	-2992
▁shone	-2993
▁sniff	-2994
▁ways	-2995
mbrell	-2996
▁fragile	-2997
▁Fr	-2998
▁envel	-2999
▁admired	-3000
oot	-3001
▁stat	-3002
▁flute	-3003
▁umbrell	-3004
iginal	-3005
▁tank	-3006
▁bounce	-3007
▁bean	-3008
▁practice	-3009
known	-3010
uth	-3011
▁bees	-3012
▁marble	-3013
eeze	-3014
▁Pe	-3015
▁changed	-3016
▁grandpa	-3017
▁flashlight	-3018
▁Ge	-3019
▁costum	-3020
pid	-3021
illa	-3022
▁whispered	-3023
▁bump	-3024
▁rubb	-3025
▁finding	-3026
▁painted	-3027
▁brace	-3028
▁helm	-3029
▁half	-3030
umbers	-3031
▁solve	-3032
▁camera	-3033
▁pumpkin	-3034
▁lab	-3035
▁pige	-3036
ray	-3037
cod	-3038
▁Cl	-3039
▁serious	-3040
▁original	-3041
▁thirsty	-3042
▁stamp	-3043
▁unknown	-3044
uring	-3045
▁stupid	-3046
▁tomato	-3047
▁suit	-3048
▁stairs	-3049
▁dove	-3050
▁post	-3051
▁playful	-3052
▁Sn	-3053
▁raced	-3054
▁yet	-3055
▁beet	-3056
▁guard	-3057
▁sleeping	-3058
▁opens	-3059
▁comput	-3060
▁wealthy	-3061
▁clum	-3062
▁picking	-3063
▁enc	-3064
▁cone	-3065
▁salad	-3066
inary	-3067
▁seeds	-3068
gu	-3069
▁Ro	-3070
▁mis	-3071
▁pebble	-3072
▁chose	-3073
▁son	-3074
▁crocod	-3075
▁mole	-3076
▁allowed	-3077
▁peanut	-3078
How	-3079
ilty	-3080
▁angel	-3081
▁forth	-3082
▁stops	-3083
▁dolphin	-3084
▁flex	-3085
▁guilty	-3086
▁cheap	-3087
▁nurse	-3088
▁delighted	-3089
dom	-3090
▁washed	-3091
▁searching	-3092
iew	-3093
▁doesn	-3094
▁nature	-3095
▁clock	-3096
▁Alex	-3097
▁metal	-3098
com	-3099
▁cere	-3100
▁moder	-3101
▁George	-3102
▁sunf	-3103
▁jolly	-3104
▁march	-3105
anger	-3106
▁compass	-3107
ines	-3108
▁boats	-3109
▁hammer	-3110
▁fresh	-3111
vice	-3112
ugged	-3113
▁view	-3114
▁those	-3115
▁numbers	-3116
isk	-3117
▁leaving	-3118
▁arrow	-3119
▁clumsy	-3120
▁telling	-3121
▁rushed	-3122
▁hay	-3123
▁dull	-3124
oomy	-3125
ience	-3126
▁hairy	-3127
▁print	-3128
▁pant	-3129
▁Pat	-3130
▁dust	-3131
▁missing	-3132
het	-3133
▁regular	-3134
▁flexible	-3135
gest	-3136
▁Toby	-3137
▁acorn	-3138
▁shel	-3139
▁terrible	-3140
▁prize	-3141
▁modern	-3142
▁friendship	-3143
!".	-3144
▁spilled	-3145
▁engine	-3146
▁tem	-3147
▁jug	-3148
▁tor	-3149
ations	-3150
▁ending	-3151
▁load	-3152
▁tooth	-3153
▁biggest	-3154
▁sauce	-3155
▁driving	-3156
▁avo	-3157
▁aunt	-3158
aghet	-3159
aghetti	-3160
▁barber	-3161
▁envelope	-3162
▁rub	-3163
▁sink	-3164
▁umbrella	-3165
▁destro	-3166
▁pirate	-3167
▁potato	-3168
▁towers	-3169
▁sne	-3170
▁peeked	-3171
▁handed	-3172
ict	-3173
▁resc	-3174
▁handle	-3175
▁patter	-3176
▁popular	-3177
fa	-3178
time	-3179
▁careless	-3180
▁carrying	-3181
▁dreaming	-3182
▁loll	-3183
▁wire	-3184
▁beetle	-3185
▁screen	-3186
▁thunder	-3187
▁char	-3188
▁spaghetti	-3189
ipop	-3190
▁tied	-3191
▁graceful	-3192
▁wing	-3193
See	-3194
▁Next	-3195
▁ing	-3196
▁comb	-3197
▁prep	-3198
Re	-3199
▁stage	-3200
▁cereal	-3201
Go	-3202
▁jacket	-3203
▁rubbed	-3204
▁statue	-3205
▁tunnel	-3206
▁knock	-3207
▁pattern	-3208
▁lollipop	-3209
▁compassion	-3210
▁mush	-3211
▁computer	-3212
▁desk	-3213
▁reward	-3214
▁slides	-3215
▁scatter	-3216
▁goose	-3217
redient	-3218
▁ingredient	-3219
▁shocked	-3220
▁er	-3221
▁Andy	-3222
ision	-3223
arsh	-3224
▁note	-3225
▁deliver	-3226
▁scale	-3227
▁Sm	-3228
▁Polly	-3229
▁stack	-3230
robe	-3231
▁cur	-3232
▁square	-3233
▁mel	-3234
▁meal	-3235
▁bull	-3236
▁trap	-3237
▁crazy	-3238
▁liz	-3239
▁grand	-3240
▁bracelet	-3241
▁crocodile	-3242
eezed	-3243
▁truth	-3244
▁pengu	-3245
▁travel	-3246
▁pow	-3247
▁witch	-3248
▁gasped	-3249
▁shiver	-3250
▁mask	-3251
▁imagined	-3252
▁impressive	-3253
▁perform	-3254
▁rug	-3255
▁Grace	-3256
▁earth	-3257
▁persist	-3258
ellig	-3259
▁trash	-3260
▁collar	-3261
▁intellig	-3262
▁early	-3263
They	-3264
▁pup	-3265
▁jumps	-3266
▁thinking	-3267
host	-3268
▁advice	-3269
oe	-3270
Ow	-3271
▁Paul	-3272
ement	-3273
io	-3274
iches	-3275
▁wheels	-3276
▁crane	-3277
▁stranger	-3278
▁names	-3279
▁env	-3280
▁perm	-3281
He	-3282
▁enth	-3283
comfort	-3284
▁windows	-3285
œWhat	-3286
▁spoke	-3287
▁spring	-3288
illie	-3289
▁fork	-3290
▁ghost	-3291
ibb	-3292
ikes	-3293
▁Look	-3294
▁bent	-3295
▁beauty	-3296
▁create	-3297
▁Here	-3298
There	-3299
▁stickers	-3300
▁enthus	-3301
▁object	-3302
▁library	-3303
▁celebrate	-3304
▁ingredients	-3305
▁mushroom	-3306
comfortable	-3307
aches	-3308
▁Bear	-3309
▁mill	-3310
▁waff	-3311
▁warned	-3312
▁growing	-3313
▁phot	-3314
▁order	-3315
▁mailbox	-3316
▁uncomfortable	-3317
▁reading	-3318
▁discover	-3319
awn	-3320
▁hipp	-3321
▁pale	-3322
▁sorts	-3323
▁butterflies	-3324
▁camp	-3325
▁torn	-3326
▁Sophie	-3327
▁sparkled	-3328
œLetâ	-3329
▁pigeon	-3330
▁harmless	-3331
▁question	-3332
ebra	-3333
▁sofa	-3334
▁complet	-3335
▁letters	-3336
▁parade	-3337
▁competitive	-3338
coa	-3339
œYes	-3340
▁anx	-3341
tter	-3342
▁flour	-3343
▁penny	-3344
▁sudden	-3345
œIt	-3346
▁uncle	-3347
▁pretending	-3348
▁gor	-3349
▁destroy	-3350
▁sandwiches	-3351
ses	-3352
▁nuts	-3353
▁ahead	-3354
orant	-3355
▁rece	-3356
▁patch	-3357
▁counting	-3358
ips	-3359
loo	-3360
▁blueber	-3361
▁badly	-3362
▁pony	-3363
ince	-3364
▁shut	-3365
▁lizard	-3366
▁anxious	-3367
▁zebra	-3368
▁beep	-3369
▁cooking	-3370
▁surf	-3371
▁placed	-3372
▁piano	-3373
▁humble	-3374
▁neat	-3375
▁Tweetie	-3376
▁hook	-3377
▁encou	-3378
ices	-3379
▁sadly	-3380
▁snuggled	-3381
▁may	-3382
▁hung	-3383
▁univer	-3384
▁cocoa	-3385
▁ignorant	-3386
▁twirled	-3387
▁intelligent	-3388
ric	-3389
▁station	-3390
▁base	-3391
▁otter	-3392
▁sunflower	-3393
stri	-3394
▁couldnâ	-3395
▁Sh	-3396
▁super	-3397
▁persistent	-3398
aid	-3399
▁dug	-3400
▁triang	-3401
Yay	-3402
▁refused	-3403
▁nail	-3404
▁task	-3405
▁speed	-3406
▁pepper	-3407
ief	-3408
▁cards	-3409
▁gum	-3410
cream	-3411
▁rules	-3412
▁gloomy	-3413
▁cupboard	-3414
▁Ba	-3415
▁Bill	-3416
▁pants	-3417
▁chasing	-3418
▁chance	-3419
▁fearful	-3420
gust	-3421
▁charming	-3422
ud	-3423
▁Sandy	-3424
▁leash	-3425
▁starts	-3426
▁tur	-3427
▁sett	-3428
▁shaking	-3429
▁creatures	-3430
▁deaf	-3431
▁attract	-3432
▁Give	-3433
▁disgust	-3434
▁trick	-3435
▁carp	-3436
▁ordinary	-3437
▁track	-3438
arian	-3439
▁resist	-3440
▁pasta	-3441
▁trump	-3442
▁anywhere	-3443
erable	-3444
▁older	-3445
▁cartoon	-3446
lcano	-3447
▁curt	-3448
▁gifted	-3449
cut	-3450
▁hippo	-3451
▁curtain	-3452
▁yawn	-3453
▁led	-3454
▁miserable	-3455
ceed	-3456
▁courage	-3457
▁cricket	-3458
▁squash	-3459
▁gorilla	-3460
▁brighter	-3461
Give	-3462
bled	-3463
▁impat	-3464
▁send	-3465
▁gir	-3466
▁alert	-3467
▁purse	-3468
▁jet	-3469
▁practiced	-3470
ne	-3471
▁club	-3472
▁hurry	-3473
▁helmet	-3474
▁turkey	-3475
▁value	-3476
▁shouts	-3477
▁decorate	-3478
▁bandage	-3479
▁Charl	-3480
▁Un	-3481
ctop	-3482
ctopus	-3483
▁soldier	-3484
urb	-3485
▁compl	-3486
▁fu	-3487
▁ostri	-3488
▁scoot	-3489
▁impatient	-3490
▁case	-3491
▁tire	-3492
▁disturb	-3493
htub	-3494
iest	-3495
▁allig	-3496
▁volcano	-3497
▁compassionate	-3498
▁trumpet	-3499
▁bathtub	-3500
▁shine	-3501
▁support	-3502
▁Millie	-3503
und	-3504
▁bounced	-3505
▁itself	-3506
▁octopus	-3507
aked	-3508
▁spell	-3509
▁carpet	-3510
▁drawer	-3511
▁Where	-3512
▁disgusting	-3513
▁Are	-3514
▁jeep	-3515
▁Before	-3516
▁pressed	-3517
▁salt	-3518
▁bicy	-3519
▁meas	-3520
▁grabs	-3521
▁filthy	-3522
▁melon	-3523
noon	-3524
▁comet	-3525
▁barking	-3526
▁afternoon	-3527
▁mug	-3528
▁restless	-3529
▁shoe	-3530
▁hunter	-3531
aff	-3532
▁envious	-3533
Bye	-3534
▁Hen	-3535
▁bri	-3536
▁tray	-3537
▁succeed	-3538
▁firework	-3539
▁helpless	-3540
▁pulls	-3541
icop	-3542
icopter	-3543
▁Buddy	-3544
▁stretched	-3545
▁ten	-3546
▁nowhere	-3547
ubby	-3548
▁skip	-3549
▁admire	-3550
▁attractive	-3551
▁lively	-3552
▁cryst	-3553
▁magnet	-3554
▁nobody	-3555
▁helicopter	-3556
aroo	-3557
▁human	-3558
angaroo	-3559
▁shield	-3560
▁explain	-3561
▁repe	-3562
aurant	-3563
▁Brownie	-3564
▁cush	-3565
▁needle	-3566
▁organize	-3567
▁somewhere	-3568
▁restaurant	-3569
gn	-3570
▁five	-3571
▁Jerry	-3572
▁giggle	-3573
gging	-3574
▁cows	-3575
▁cats	-3576
▁leop	-3577
▁anyway	-3578
If	-3579
ser	-3580
▁barrel	-3581
▁vine	-3582
▁kangaroo	-3583
▁bet	-3584
▁vide	-3585
▁attic	-3586
▁monkeys	-3587
▁split	-3588
▁sticker	-3589
▁dess	-3590
▁cooked	-3591
▁lions	-3592
▁reco	-3593
▁wishes	-3594
▁ostrich	-3595
ophone	-3596
▁Red	-3597
œThat	-3598
▁thief	-3599
▁poem	-3600
▁chubby	-3601
▁thread	-3602
▁Bet	-3603
▁ants	-3604
▁Everything	-3605
▁further	-3606
▁sandbox	-3607
nna	-3608
▁pun	-3609
▁seal	-3610
▁harsh	-3611
▁goal	-3612
▁distant	-3613
▁backpack	-3614
▁tap	-3615
ebook	-3616
inking	-3617
▁radio	-3618
▁respectful	-3619
▁vi	-3620
▁paws	-3621
▁screw	-3622
astic	-3623
ummer	-3624
▁Bunny	-3625
▁notebook	-3626
stairs	-3627
▁holes	-3628
▁ribb	-3629
▁Henry	-3630
▁unpack	-3631
▁raven	-3632
par	-3633
▁finds	-3634
▁muff	-3635
▁sent	-3636
▁separ	-3637
▁Mag	-3638
▁pushes	-3639
iskers	-3640
▁stirred	-3641
▁math	-3642
▁fireman	-3643
▁modest	-3644
▁switch	-3645
▁alligator	-3646
▁steps	-3647
▁Maria	-3648
▁stared	-3649
▁elev	-3650
orable	-3651
▁frowned	-3652
▁Whiskers	-3653
night	-3654
▁Harry	-3655
▁package	-3656
▁Charlie	-3657
▁leopard	-3658
▁sweater	-3659
▁hedge	-3660
▁avoc	-3661
▁Annie	-3662
▁pand	-3663
▁rice	-3664
▁bicycle	-3665
hood	-3666
stic	-3667
▁cardboard	-3668
▁micr	-3669
▁wheat	-3670
▁lid	-3671
▁cube	-3672
▁size	-3673
ipping	-3674
▁sheet	-3675
▁drawings	-3676
▁elevator	-3677
▁soar	-3678
cycle	-3679
▁Smith	-3680
▁fort	-3681
▁bikes	-3682
▁jokes	-3683
▁behave	-3684
▁candle	-3685
▁lightning	-3686
▁ur	-3687
▁impro	-3688
▁adorable	-3689
iastic	-3690
▁breat	-3691
▁silver	-3692
▁enthusiastic	-3693
▁Will	-3694
ci	-3695
iron	-3696
▁hive	-3697
▁bears	-3698
▁sort	-3699
▁dessert	-3700
▁haircut	-3701
▁exper	-3702
▁speak	-3703
gie	-3704
▁Snow	-3705
elery	-3706
▁happier	-3707
▁fle	-3708
heart	-3709
▁meat	-3710
▁microphone	-3711
come	-3712
▁Lee	-3713
▁sle	-3714
▁loop	-3715
▁Tr	-3716
irit	-3717
▁chain	-3718
▁quite	-3719
▁repair	-3720
▁hall	-3721
▁either	-3722
uct	-3723
aila	-3724
▁pal	-3725
ccol	-3726
▁energ	-3727
▁troubled	-3728
ccoli	-3729
▁stretch	-3730
▁recogn	-3731
Anna	-3732
▁quar	-3733
reci	-3734
▁marry	-3735
▁chalk	-3736
▁oy	-3737
▁prov	-3738
▁tripped	-3739
▁Ros	-3740
aulif	-3741
▁swinging	-3742
cast	-3743
▁pole	-3744
▁appreci	-3745
▁Ru	-3746
▁Pap	-3747
▁boots	-3748
▁paid	-3749
▁riding	-3750
▁listening	-3751
▁roared	-3752
▁jellyfish	-3753
▁gro	-3754
▁stom	-3755
ailable	-3756
▁dishes	-3757
▁golf	-3758
▁papers	-3759
▁por	-3760
▁cact	-3761
▁shovel	-3762
▁forgave	-3763
year	-3764
▁oat	-3765
▁checked	-3766
▁sandcast	-3767
▁lip	-3768
▁rescue	-3769
▁bin	-3770
▁clapping	-3771
▁rod	-3772
▁shelter	-3773
eer	-3774
▁brus	-3775
▁didnâ	-3776
▁scold	-3777
▁mama	-3778
▁wallet	-3779
cond	-3780
▁inse	-3781
▁buzz	-3782
▁second	-3783
▁available	-3784
▁sock	-3785
▁obser	-3786
▁celery	-3787
happy	-3788
▁shakes	-3789
▁pushing	-3790
▁triangle	-3791
fee	-3792
▁ink	-3793
▁eraser	-3794
▁Lilly	-3795
▁message	-3796
▁peek	-3797
▁grapes	-3798
▁palace	-3799
ffee	-3800
▁alive	-3801
▁caulif	-3802
▁trains	-3803
▁falling	-3804
▁shopkeeper	-3805
▁Papa	-3806
▁trop	-3807
▁colours	-3808
▁feelings	-3809
▁knot	-3810
▁sailor	-3811
▁point	-3812
▁broccoli	-3813
ube	-3814
▁rag	-3815
▁breaks	-3816
▁cactus	-3817
▁costume	-3818
▁country	-3819
▁lear	-3820
▁raft	-3821
▁judge	-3822
▁smells	-3823
▁spirit	-3824
olin	-3825
▁tuna	-3826
▁yach	-3827
render	-3828
▁learnt	-3829
▁laser	-3830
▁softly	-3831
▁summer	-3832
▁trophy	-3833
▁scooter	-3834
ron	-3835
▁luck	-3836
▁onion	-3837
▁shrimp	-3838
▁Jess	-3839
▁putting	-3840
▁climbing	-3841
▁ended	-3842
▁polish	-3843
▁raining	-3844
▁art	-3845
▁men	-3846
▁reind	-3847
▁crystal	-3848
▁Or	-3849
▁mild	-3850
azz	-3851
play	-3852
bul	-3853
reeze	-3854
ucked	-3855
▁starting	-3856
▁rubber	-3857
▁zoomed	-3858
▁visited	-3859
▁treasures	-3860
edy	-3861
▁basketball	-3862
ooped	-3863
▁hoping	-3864
▁sprink	-3865
▁unhappy	-3866
▁Danny	-3867
▁strugg	-3868
▁rolling	-3869
▁appl	-3870
▁Would	-3871
▁energy	-3872
▁given	-3873
sist	-3874
▁tube	-3875
▁yacht	-3876
ef	-3877
▁ol	-3878
▁laund	-3879
▁cauliflower	-3880
▁Kate	-3881
▁pilot	-3882
▁pipe	-3883
aled	-3884
▁ped	-3885
▁laundry	-3886
▁unlock	-3887
▁penguin	-3888
icer	-3889
▁saus	-3890
▁neighbour	-3891
▁cooler	-3892
▁hotel	-3893
▁frame	-3894
▁hadn	-3895
▁reindeer	-3896
▁flies	-3897
▁dive	-3898
▁display	-3899
▁barks	-3900
▁tricks	-3901
▁kay	-3902
▁cups	-3903
▁quit	-3904
▁belt	-3905
▁Baby	-3906
▁short	-3907
Ha	-3908
▁thanks	-3909
▁sweetheart	-3910
▁bul	-3911
ait	-3912
▁disag	-3913
▁airport	-3914
▁bur	-3915
▁Inst	-3916
▁incl	-3917
ecause	-3918
▁peach	-3919
▁coffee	-3920
sely	-3921
kelet	-3922
▁oil	-3923
▁drops	-3924
▁shade	-3925
▁Maggie	-3926
▁evening	-3927
▁film	-3928
▁journal	-3929
▁sym	-3930
▁lawy	-3931
▁throws	-3932
▁tax	-3933
▁cord	-3934
▁stuffed	-3935
ides	-3936
▁cushion	-3937
ney	-3938
▁folder	-3939
▁bulb	-3940
▁lives	-3941
▁pad	-3942
▁skill	-3943
seum	-3944
▁iron	-3945
▁marched	-3946
hino	-3947
▁bananas	-3948
▁photo	-3949
▁closely	-3950
pe	-3951
zzy	-3952
▁vend	-3953
▁ambul	-3954
▁leaned	-3955
▁surrender	-3956
nger	-3957
▁tub	-3958
▁panda	-3959
▁Bun	-3960
▁fisher	-3961
▁football	-3962
▁planet	-3963
ense	-3964
▁insist	-3965
▁museum	-3966
enny	-3967
▁strawberry	-3968
▁fauc	-3969
▁pair	-3970
▁wool	-3971
▁porch	-3972
▁counter	-3973
ges	-3974
keleton	-3975
bol	-3976
▁lend	-3977
▁diary	-3978
ito	-3979
affe	-3980
▁symbol	-3981
▁painter	-3982
▁theater	-3983
▁cherries	-3984
▁ambulance	-3985
▁taxi	-3986
▁swung	-3987
▁ax	-3988
▁James	-3989
▁rhino	-3990
ites	-3991
▁waving	-3992
▁complete	-3993
▁frogs	-3994
▁heads	-3995
▁steak	-3996
▁fields	-3997
▁faucet	-3998
▁apologized	-3999
izes	-4000
▁violin	-4001
▁lie	-4002
ple	-4003
ccer	-4004
mand	-4005
quito	-4006
▁forgotten	-4007
▁reef	-4008
▁insect	-4009
▁plastic	-4010
▁hut	-4011
nam	-4012
▁mule	-4013
▁cheek	-4014
▁magaz	-4015
..	-4016
€“	-4017
ckey	-4018
▁Miss	-4019
▁page	-4020
▁hockey	-4021
▁powder	-4022
opl	-4023
œYou	-4024
eropl	-4025
▁soccer	-4026
▁imagine	-4027
▁cable	-4028
▁aeropl	-4029
▁imagination	-4030
▁shouldn	-4031
▁Tony	-4032
▁lime	-4033
Dad	-4034
▁Kat	-4035
▁mos	-4036
▁vet	-4037
▁baking	-4038
ween	-4039
▁Ted	-4040
▁winter	-4041
▁trail	-4042
▁sunset	-4043
aused	-4044
▁skeleton	-4045
▁wife	-4046
▁between	-4047
▁created	-4048
angu	-4049
▁belongs	-4050
▁giraffe	-4051
▁quarrel	-4052
▁vendor	-4053
▁langu	-4054
▁pirates	-4055
▁mosquito	-4056
any	-4057
▁soil	-4058
▁player	-4059
▁sir	-4060
ected	-4061
▁chirp	-4062
▁grocer	-4063
▁axe	-4064
aces	-4065
▁kitty	-4066
▁rever	-4067
ctory	-4068
iling	-4069
▁Instead	-4070
ories	-4071
▁points	-4072
urch	-4073
▁wipe	-4074
ues	-4075
▁breeze	-4076
▁temple	-4077
▁motorcycle	-4078
▁slept	-4079
▁eagerly	-4080
▁herb	-4081
▁sneak	-4082
anic	-4083
▁Rosie	-4084
▁yogurt	-4085
ippery	-4086
▁minute	-4087
▁factory	-4088
nament	-4089
▁shouting	-4090
▁slippery	-4091
▁attention	-4092
▁stud	-4093
▁kayak	-4094
▁lawyer	-4095
▁meeting	-4096
chair	-4097
▁blowing	-4098
▁fisherman	-4099
chanic	-4100
▁mixer	-4101
▁perfectly	-4102
▁cane	-4103
▁novel	-4104
▁seeing	-4105
▁ornament	-4106
▁poke	-4107
▁argue	-4108
▁glowing	-4109
Max	-4110
imi	-4111
▁mechanic	-4112
▁pit	-4113
▁fishing	-4114
▁sprayed	-4115
▁chickens	-4116
spap	-4117
▁seas	-4118
▁offer	-4119
imney	-4120
▁maze	-4121
▁vest	-4122
▁headed	-4123
men	-4124
▁newspap	-4125
▁twink	-4126
▁napkin	-4127
▁weather	-4128
▁armchair	-4129
▁avocado	-4130
▁rot	-4131
▁donâ	-4132
▁skull	-4133
▁blankets	-4134
▁celebrated	-4135
▁sung	-4136
▁chimney	-4137
ison	-4138
▁glove	-4139
▁hopes	-4140
place	-4141
▁itch	-4142
▁flame	-4143
▁zipper	-4144
iture	-4145
▁greedy	-4146
urniture	-4147
▁baseball	-4148
lass	-4149
▁squirrels	-4150
Your	-4151
eterin	-4152
eterinarian	-4153
aud	-4154
▁golden	-4155
▁furniture	-4156
▁flea	-4157
▁video	-4158
▁mystery	-4159
▁toil	-4160
▁moves	-4161
▁shower	-4162
▁Ab	-4163
▁Clara	-4164
▁veterinarian	-4165
ceros	-4166
▁knob	-4167
▁welcomed	-4168
▁doors	-4169
▁oyster	-4170
▁sniffed	-4171
▁petals	-4172
▁wags	-4173
▁parent	-4174
▁kingdom	-4175
▁Jul	-4176
▁follows	-4177
▁toilet	-4178
erc	-4179
▁ble	-4180
▁har	-4181
▁calls	-4182
▁happens	-4183
▁memories	-4184
▁bury	-4185
▁discu	-4186
▁freez	-4187
sing	-4188
▁mop	-4189
▁Mimi	-4190
▁hanging	-4191
▁God	-4192
▁junk	-4193
▁tear	-4194
reek	-4195
▁lawn	-4196
▁writing	-4197
▁rhinoceros	-4198
was	-4199
▁May	-4200
▁creek	-4201
▁lotion	-4202
▁applaud	-4203
mm	-4204
▁vroom	-4205
▁sticky	-4206
unately	-4207
elcome	-4208
washer	-4209
▁surround	-4210
▁reve	-4211
▁sque	-4212
▁fireplace	-4213
▁quack	-4214
▁throwing	-4215
▁miner	-4216
▁dishwasher	-4217
hero	-4218
▁Ste	-4219
▁coal	-4220
▁exerc	-4221
ler	-4222
▁trave	-4223
▁aeroplane	-4224
▁superhero	-4225
▁prun	-4226
▁medal	-4227
▁weigh	-4228
▁popped	-4229
lasses	-4230
▁passport	-4231
▁burned	-4232
▁shoulder	-4233
▁pine	-4234
▁sunglasses	-4235
tain	-4236
▁See	-4237
▁staff	-4238
▁church	-4239
▁ignored	-4240
tress	-4241
▁shrugged	-4242
▁dear	-4243
▁veil	-4244
▁mattress	-4245
▁classroom	-4246
aws	-4247
low	-4248
▁ig	-4249
▁igloo	-4250
▁bother	-4251
rosc	-4252
orses	-4253
▁grin	-4254
▁regret	-4255
iday	-4256
llie	-4257
▁cob	-4258
▁flapped	-4259
▁collected	-4260
▁agre	-4261
▁worth	-4262
▁dancer	-4263
▁crib	-4264
▁First	-4265
▁sailing	-4266
roscope	-4267
▁tug	-4268
▁since	-4269
▁horses	-4270
▁invest	-4271
▁battery	-4272
asis	-4273
ring	-4274
▁crow	-4275
una	-4276
ssible	-4277
▁mistakes	-4278
▁microscope	-4279
▁swamp	-4280
▁language	-4281
▁fought	-4282
▁bouncing	-4283
▁presents	-4284
▁separate	-4285
▁oak	-4286
Timmy	-4287
▁float	-4288
▁skirt	-4289
▁agree	-4290
▁investig	-4291
ety	-4292
▁pastry	-4293
▁streng	-4294
▁quietly	-4295
rod	-4296
web	-4297
▁Iâ	-4298
inked	-4299
right	-4300
▁oasis	-4301
Sam	-4302
case	-4303
▁inf	-4304
▁dressed	-4305
▁eaten	-4306
Wait	-4307
ores	-4308
▁cared	-4309
▁introd	-4310
▁makeup	-4311
▁stable	-4312
▁strength	-4313
▁beef	-4314
▁candles	-4315
▁True	-4316
vision	-4317
▁magazine	-4318
▁hol	-4319
▁blackboard	-4320
▁caring	-4321
▁holiday	-4322
▁prevent	-4323
▁newspaper	-4324
▁alarm	-4325
▁apart	-4326
Because	-4327
▁crawling	-4328
▁Sad	-4329
▁cobweb	-4330
▁sizes	-4331
te	-4332
medi	-4333
▁cell	-4334
▁straight	-4335
▁married	-4336
mediately	-4337
▁complain	-4338
▁scolded	-4339
ggy	-4340
▁choice	-4341
▁snap	-4342
▁coats	-4343
▁rooms	-4344
▁trusted	-4345
▁squeezed	-4346
▁investigate	-4347
▁fog	-4348
anges	-4349
▁pist	-4350
▁accepted	-4351
chie	-4352
omes	-4353
▁gym	-4354
▁pur	-4355
▁Each	-4356
▁Help	-4357
▁thumb	-4358
▁television	-4359
▁weep	-4360
▁berry	-4361
▁pistol	-4362
▁pra	-4363
▁Luck	-4364
▁radish	-4365
▁kisses	-4366
▁whisper	-4367
▁steam	-4368
Qu	-4369
▁Snowy	-4370
ction	-4371
ab	-4372
▁attach	-4373
▁shrink	-4374
▁squeeze	-4375
▁reaches	-4376
▁itâ	-4377
▁ticket	-4378
▁news	-4379
▁rake	-4380
▁yield	-4381
▁Luckily	-4382
▁puddles	-4383
▁splashing	-4384
▁appro	-4385
▁perfu	-4386
▁ceiling	-4387
▁relaxed	-4388
oh	-4389
▁musician	-4390
▁entered	-4391
▁amazement	-4392
Did	-4393
▁sigh	-4394
▁unif	-4395
▁jewelry	-4396
▁letting	-4397
▁blinked	-4398
▁blood	-4399
▁Buzz	-4400
▁licks	-4401
▁teleph	-4402
▁wandered	-4403
▁birdc	-4404
▁castles	-4405
ups	-4406
▁wigg	-4407
▁delay	-4408
▁perfume	-4409
sters	-4410
▁harb	-4411
▁chairs	-4412
▁uniform	-4413
▁birdcage	-4414
mend	-4415
œItâ	-4416
▁stro	-4417
▁easily	-4418
ising	-4419
▁opera	-4420
▁yucky	-4421
▁demand	-4422
▁helper	-4423
ives	-4424
▁suff	-4425
▁firef	-4426
▁telephone	-4427
Sara	-4428
▁yoga	-4429
Thanks	-4430
house	-4431
▁Ruby	-4432
▁hurting	-4433
And	-4434
▁Tina	-4435
▁serve	-4436
omeday	-4437
▁Who	-4438
ommend	-4439
▁blueberries	-4440
hic	-4441
▁raz	-4442
▁rise	-4443
▁bookcase	-4444
chor	-4445
▁pinch	-4446
▁freezer	-4447
▁growled	-4448
▁recommend	-4449
sit	-4450
▁requ	-4451
▁claws	-4452
▁spear	-4453
▁vehic	-4454
▁keeping	-4455
▁cliff	-4456
▁sandcastle	-4457
▁grill	-4458
achel	-4459
▁bathe	-4460
▁chess	-4461
▁waffle	-4462
▁However	-4463
▁sub	-4464
▁crash	-4465
▁puzzles	-4466
▁matches	-4467
▁disappear	-4468
Is	-4469
nce	-4470
cakes	-4471
▁plates	-4472
▁tucked	-4473
▁crossed	-4474
▁mustache	-4475
▁tong	-4476
▁file	-4477
▁ward	-4478
▁Rachel	-4479
▁planes	-4480
▁surprises	-4481
▁conf	-4482
▁rail	-4483
▁harbor	-4484
▁hearts	-4485
▁ribbon	-4486
ival	-4487
▁improve	-4488
▁Katie	-4489
▁trade	-4490
▁wardrobe	-4491
▁si	-4492
▁dried	-4493
▁Freddy	-4494
ived	-4495
▁tut	-4496
alley	-4497
▁mint	-4498
▁wine	-4499
▁below	-4500
▁request	-4501
▁cabinet	-4502
▁Me	-4503
ionary	-4504
▁bill	-4505
▁anchor	-4506
▁vac	-4507
raged	-4508
▁warmth	-4509
▁someday	-4510
▁toes	-4511
▁Poppy	-4512
▁razor	-4513
▁captain	-4514
ictionary	-4515
▁Fo	-4516
▁refre	-4517
▁apron	-4518
▁bleed	-4519
▁incre	-4520
▁poked	-4521
▁dictionary	-4522
amber	-4523
▁valley	-4524
▁scattered	-4525
fortunately	-4526
lier	-4527
▁waste	-4528
▁fuel	-4529
▁boot	-4530
▁pear	-4531
▁kneel	-4532
▁spade	-4533
▁skills	-4534
uch	-4535
▁mass	-4536
ucture	-4537
▁supply	-4538
▁known	-4539
▁safety	-4540
▁structure	-4541
▁People	-4542
▁blouse	-4543
▁laught	-4544
ah	-4545
▁spots	-4546
▁spending	-4547
▁lumber	-4548
▁muffin	-4549
▁lemonade	-4550
▁following	-4551
▁experience	-4552
▁instr	-4553
▁cuddled	-4554
▁dresses	-4555
€.	-4556
▁isn	-4557
▁balan	-4558
▁moments	-4559
▁Ollie	-4560
▁laughter	-4561
▁V	-4562
▁aut	-4563
▁Spike	-4564
▁saving	-4565
▁cub	-4566
▁Milly	-4567
▁Penny	-4568
▁fallen	-4569
▁ideas	-4570
'.	-4571
▁snapped	-4572
▁understanding	-4573
Yuck	-4574
▁myself	-4575
▁fastest	-4576
▁prop	-4577
▁strawberries	-4578
ampoo	-4579
▁airpl	-4580
oral	-4581
alend	-4582
▁calend	-4583
▁tornado	-4584
▁fest	-4585
▁raise	-4586
▁row	-4587
▁worms	-4588
▁jewels	-4589
▁missile	-4590
▁calendar	-4591
▁remove	-4592
▁sneeze	-4593
▁flutter	-4594
▁lugg	-4595
▁Liz	-4596
icing	-4597
▁beans	-4598
▁buried	-4599
▁taller	-4600
▁yawned	-4601
▁luggage	-4602
aped	-4603
▁weap	-4604
▁immediately	-4605
riger	-4606
▁bravely	-4607
▁ringing	-4608
▁sparkling	-4609
▁enter	-4610
rigerator	-4611
▁begged	-4612
▁reverse	-4613
▁refrigerator	-4614
▁bumped	-4615
▁earlier	-4616
▁shampoo	-4617
ero	-4618
▁hits	-4619
▁root	-4620
▁bookshe	-4621
▁rabbits	-4622
▁destroyed	-4623
▁Joy	-4624
▁ignore	-4625
▁infant	-4626
▁port	-4627
Welcome	-4628
▁hardly	-4629
▁settled	-4630
▁lic	-4631
▁dire	-4632
▁appreciate	-4633
vet	-4634
▁Zoe	-4635
▁gear	-4636
▁homes	-4637
▁beamed	-4638
▁washing	-4639
▁rhy	-4640
htray	-4641
▁Have	-4642
▁ashtray	-4643
▁destination	-4644
▁socks	-4645
▁Co	-4646
rm	-4647
▁Its	-4648
▁tore	-4649
▁chores	-4650
▁climbs	-4651
▁chamber	-4652
▁prepare	-4653
anna	-4654
▁signs	-4655
▁hanger	-4656
▁breathe	-4657
▁pages	-4658
▁remain	-4659
▁tutor	-4660
▁cherry	-4661
▁palm	-4662
▁therm	-4663
▁invite	-4664
▁replace	-4665
▁sparkle	-4666
ission	-4667
▁plays	-4668
▁universe	-4669
▁vanished	-4670
▁decorations	-4671
reat	-4672
▁tide	-4673
▁Betsy	-4674
▁solved	-4675
ari	-4676
▁praised	-4677
▁Everyday	-4678
▁permission	-4679
inky	-4680
▁pride	-4681
▁vacation	-4682
▁tongue	-4683
▁bookshelf	-4684
bbie	-4685
▁admir	-4686
▁hills	-4687
▁poison	-4688
▁deeper	-4689
▁sits	-4690
▁scooped	-4691
▁score	-4692
▁examine	-4693
▁stomach	-4694
▁sparkles	-4695
nies	-4696
▁festival	-4697
▁thermomet	-4698
▁insisted	-4699
▁teaching	-4700
omob	-4701
▁Nut	-4702
▁crunch	-4703
▁floated	-4704
▁quiz	-4705
▁Steve	-4706
▁scratch	-4707
bbles	-4708
▁Good	-4709
▁alright	-4710
▁automob	-4711
osed	-4712
▁simp	-4713
xture	-4714
▁mailman	-4715
▁received	-4716
▁difference	-4717
ops	-4718
▁daisy	-4719
▁believed	-4720
▁chirping	-4721
▁thermometer	-4722
▁patiently	-4723
▁bang	-4724
▁digg	-4725
▁panic	-4726
▁oranges	-4727
▁floating	-4728
▁struggling	-4729
ents	-4730
Sp	-4731
▁achie	-4732
▁pulling	-4733
▁digging	-4734
asp	-4735
▁Is	-4736
▁punish	-4737
▁drain	-4738
▁license	-4739
▁hers	-4740
▁model	-4741
▁ranch	-4742
thm	-4743
▁provide	-4744
▁sty	-4745
▁dare	-4746
▁repeat	-4747
▁upstairs	-4748
Ok	-4749
▁Mat	-4750
▁jail	-4751
▁gifts	-4752
▁buzzing	-4753
▁measured	-4754
▁encouraged	-4755
▁Chirp	-4756
▁restore	-4757
antly	-4758
igail	-4759
▁shooting	-4760
▁collection	-4761
▁neighborhood	-4762
▁glo	-4763
▁invit	-4764
▁guy	-4765
▁brain	-4766
▁rhythm	-4767
▁bathrobe	-4768
iers	-4769
▁bites	-4770
▁equ	-4771
▁none	-4772
▁respons	-4773
bey	-4774
osity	-4775
sity	-4776
▁includ	-4777
ging	-4778
▁sew	-4779
▁shot	-4780
▁sausage	-4781
▁collecting	-4782
▁King	-4783
▁grape	-4784
▁label	-4785
▁patterns	-4786
▁worse	-4787
▁spaces	-4788
▁subway	-4789
▁mention	-4790
▁approached	-4791
rise	-4792
▁Abigail	-4793
▁discuss	-4794
allen	-4795
izard	-4796
▁mall	-4797
▁weeks	-4798
▁elephants	-4799
▁whip	-4800
▁tease	-4801
▁massage	-4802
▁sprinkles	-4803
Mmm	-4804
▁jazz	-4805
▁sore	-4806
▁melted	-4807
xy	-4808
▁Fro	-4809
▁challen	-4810
▁setting	-4811
▁supposed	-4812
act	-4813
▁sip	-4814
▁shed	-4815
▁buckle	-4816
These	-4817
▁unite	-4818
▁sunrise	-4819
▁billboard	-4820
▁girls	-4821
▁bricks	-4822
▁twisted	-4823
ium	-4824
▁flav	-4825
▁leak	-4826
▁oper	-4827
▁meowed	-4828
▁exercise	-4829
▁item	-4830
▁spit	-4831
▁airplane	-4832
▁vehicle	-4833
▁parts	-4834
▁wizard	-4835
allow	-4836
▁discovery	-4837
▁jogging	-4838
▁watches	-4839
▁soldiers	-4840
atch	-4841
▁fut	-4842
▁hesit	-4843
▁bak	-4844
fied	-4845
▁future	-4846
▁poppy	-4847
▁pillows	-4848
shing	-4849
▁glowed	-4850
▁automobile	-4851
▁grey	-4852
▁hate	-4853
ude	-4854
▁university	-4855
▁marbles	-4856
▁gust	-4857
aspoon	-4858
▁sport	-4859
gy	-4860
▁pigs	-4861
▁mister	-4862
▁grocery	-4863
▁teaspoon	-4864
▁whistled	-4865
▁rush	-4866
▁brings	-4867
▁fixing	-4868
▁awe	-4869
▁gain	-4870
▁event	-4871
▁actually	-4872
▁heat	-4873
▁urge	-4874
▁manage	-4875
▁lets	-4876
▁warning	-4877
▁suffer	-4878
▁remained	-4879
▁scratched	-4880
▁Unfortunately	-4881
▁beg	-4882
▁burning	-4883
▁thrilled	-4884
Not	-4885
asc	-4886
œNo	-4887
cles	-4888
▁seats	-4889
▁slice	-4890
▁grinned	-4891
ases	-4892
▁Jam	-4893
▁growl	-4894
▁paused	-4895
▁surrounded	-4896
umble	-4897
▁problems	-4898
adium	-4899
▁lick	-4900
▁Nutty	-4901
▁sings	-4902
▁stadium	-4903
▁Je	-4904
▁chir	-4905
▁works	-4906
▁zipped	-4907
bers	-4908
Would	-4909
▁Sharing	-4910
▁Cat	-4911
▁toe	-4912
▁chirped	-4913
ishing	-4914
▁spill	-4915
▁Someone	-4916
▁nation	-4917
▁weapon	-4918
▁twigs	-4919
▁drinks	-4920
▁drinking	-4921
▁ordered	-4922
Ouch	-4923
emember	-4924
▁whistling	-4925
▁rust	-4926
▁scur	-4927
▁cakes	-4928
▁racing	-4929
▁possible	-4930
▁eff	-4931
▁beat	-4932
▁hurric	-4933
▁strang	-4934
▁tracks	-4935
▁observe	-4936
eed	-4937
▁lect	-4938
▁receive	-4939
▁tour	-4940
▁during	-4941
▁paints	-4942
▁prayed	-4943
▁sneezed	-4944
▁marching	-4945
▁Luna	-4946
▁laid	-4947
▁waffles	-4948
▁watered	-4949
▁decision	-4950
▁spaceship	-4951
▁ours	-4952
▁hated	-4953
▁memory	-4954
▁sliding	-4955
▁x	-4956
!",	-4957
▁El	-4958
cious	-4959
▁contain	-4960
▁wherever	-4961
▁crunchy	-4962
▁lecture	-4963
▁potatoes	-4964
Ready	-4965
▁waits	-4966
▁raised	-4967
▁petted	-4968
▁screams	-4969
▁cartoons	-4970
▁hurricane	-4971
▁invitation	-4972
!'	-4973
▁earthqu	-4974
▁spoons	-4975
▁crashed	-4976
▁olive	-4977
▁satis	-4978
▁lily	-4979
▁warn	-4980
fy	-4981
walk	-4982
ities	-4983
▁fasc	-4984
▁flood	-4985
▁peanuts	-4986
▁skipping	-4987
▁strangers	-4988
▁tomatoes	-4989
▁fed	-4990
▁swims	-4991
▁curled	-4992
▁operation	-4993
oved	-4994
▁mitten	-4995
▁fireworks	-4996
▁pupp	-4997
▁sunlight	-4998
œThatâ	-4999
▁mineral	-5000
▁recognized	-5001
cc	-5002
do	-5003
▁Not	-5004
▁beds	-5005
▁strip	-5006
▁measuring	-5007
hest	-5008
▁vel	-5009
▁chewed	-5010
▁circus	-5011
▁Jan	-5012
▁velvet	-5013
▁disagreed	-5014
nday	-5015
▁Anne	-5016
▁Sunday	-5017
▁safari	-5018
Sh	-5019
▁remem	-5020
▁planted	-5021
Yum	-5022
▁Frank	-5023
▁Chirpy	-5024
▁kindly	-5025
▁remembers	-5026
ipment	-5027
▁lands	-5028
▁mouths	-5029
▁talent	-5030
▁continue	-5031
▁price	-5032
▁easier	-5033
▁admiring	-5034
▁sidewalk	-5035
▁buildings	-5036
▁equipment	-5037
▁wond	-5038
mother	-5039
▁brick	-5040
▁comfy	-5041
▁monsters	-5042
œIâ	-5043
▁bes	-5044
▁secrets	-5045
bbled	-5046
▁fascin	-5047
▁attached	-5048
▁Remy	-5049
▁meow	-5050
▁appear	-5051
▁mountains	-5052
▁flap	-5053
▁tremb	-5054
▁glitter	-5055
▁happiest	-5056
▁fet	-5057
▁escaped	-5058
▁blueberry	-5059
▁folded	-5060
▁refreshed	-5061
Really	-5062
▁bones	-5063
▁effort	-5064
▁clearing	-5065
seek	-5066
▁Chr	-5067
▁Letâ	-5068
▁selling	-5069
",	-5070
▁wre	-5071
▁company	-5072
▁bringing	-5073
son	-5074
▁gaz	-5075
▁apologize	-5076
▁Josh	-5077
▁prepared	-5078
▁Sadly	-5079
▁gloves	-5080
▁revealed	-5081
▁earthquake	-5082
▁Ol	-5083
▁Moral	-5084
▁Uncle	-5085
▁officer	-5086
▁An	-5087
▁lips	-5088
▁beside	-5089
▁wid	-5090
▁navy	-5091
▁obey	-5092
▁weren	-5093
▁onwards	-5094
▁trapped	-5095
▁turning	-5096
▁bleeding	-5097
▁copper	-5098
▁simple	-5099
▁anytime	-5100
▁menu	-5101
▁doggy	-5102
▁weight	-5103
▁guessed	-5104
▁six	-5105
▁muddy	-5106
▁leather	-5107
▁stripes	-5108
enty	-5109
▁reminder	-5110
▁Qu	-5111
▁ladyb	-5112
▁precious	-5113
▁pets	-5114
▁wanting	-5115
▁dinosaurs	-5116
▁waist	-5117
▁slip	-5118
▁Sunny	-5119
zag	-5120
▁gotten	-5121
▁succeeded	-5122
▁Chl	-5123
▁bye	-5124
▁hist	-5125
▁allow	-5126
▁Jamie	-5127
▁steel	-5128
▁history	-5129
▁catching	-5130
aded	-5131
▁keeper	-5132
▁settle	-5133
▁firefight	-5134
▁By	-5135
▁peered	-5136
Spot	-5137
Will	-5138
▁Dav	-5139
▁Beth	-5140
▁cuddle	-5141
▁brand	-5142
To	-5143
▁oats	-5144
œWe	-5145
joyed	-5146
▁fash	-5147
▁served	-5148
▁villag	-5149
▁everyday	-5150
▁overjoyed	-5151
▁freeze	-5152
idges	-5153
▁Chloe	-5154
▁wisdom	-5155
▁Tiny	-5156
▁pies	-5157
▁scoop	-5158
▁gained	-5159
▁rested	-5160
œThank	-5161
▁style	-5162
▁Floppy	-5163
▁permit	-5164
▁rained	-5165
▁perched	-5166
▁eats	-5167
▁pedal	-5168
▁soared	-5169
▁Sure	-5170
▁David	-5171
▁cutting	-5172
▁wonders	-5173
▁image	-5174
▁tastes	-5175
▁shopping	-5176
▁comforted	-5177
▁Ke	-5178
▁bowed	-5179
▁eagle	-5180
▁printer	-5181
One	-5182
igzag	-5183
amb	-5184
▁Am	-5185
▁pupil	-5186
▁wooden	-5187
▁shadows	-5188
▁Ra	-5189
▁rang	-5190
▁bridges	-5191
▁snowball	-5192
▁voices	-5193
▁answers	-5194
▁whatever	-5195
▁Lucky	-5196
▁famil	-5197
▁acorns	-5198
rs	-5199
mble	-5200
▁Big	-5201
▁stealing	-5202
▁visiting	-5203
▁fashion	-5204
anta	-5205
▁drag	-5206
▁decides	-5207
▁hurried	-5208
▁costumes	-5209
▁bene	-5210
▁Spark	-5211
▁stitch	-5212
▁brushed	-5213
▁Something	-5214
▁agreement	-5215
▁writes	-5216
▁downstairs	-5217
oming	-5218
▁emerg	-5219
▁breaking	-5220
ien	-5221
nie	-5222
▁Nina	-5223
▁crept	-5224
▁exact	-5225
▁nails	-5226
len	-5227
▁creation	-5228
▁struggled	-5229
▁villagers	-5230
▁responsible	-5231
▁Hanna	-5232
▁Hoppy	-5233
▁twirling	-5234
▁ripped	-5235
▁beneath	-5236
▁sadness	-5237
▁curiosity	-5238
▁disturbed	-5239
▁Pr	-5240
ding	-5241
icorn	-5242
▁emergen	-5243
▁unicorn	-5244
▁underground	-5245
▁pitch	-5246
▁bun	-5247
▁tip	-5248
izing	-5249
neath	-5250
▁tremble	-5251
▁weighed	-5252
▁accidents	-5253
▁mice	-5254
▁Julie	-5255
▁These	-5256
▁pancakes	-5257
▁Lu	-5258
gen	-5259
▁Suzy	-5260
iggy	-5261
▁chef	-5262
▁comple	-5263
▁Bubbles	-5264
▁firemen	-5265
▁practicing	-5266
ays	-5267
▁Car	-5268
▁Santa	-5269
isten	-5270
▁Betty	-5271
▁neighbors	-5272
▁3-	-5273
terday	-5274
▁examined	-5275
▁vict	-5276
xygen	-5277
▁Tilly	-5278
▁argued	-5279
▁doctors	-5280
▁grandmother	-5281
▁bare	-5282
▁lemons	-5283
▁decorated	-5284
ira	-5285
▁Lul	-5286
▁died	-5287
▁begin	-5288
▁claps	-5289
▁knelt	-5290
▁rides	-5291
▁network	-5292
▁spiders	-5293
▁padd	-5294
▁owned	-5295
▁Pip	-5296
▁Like	-5297
▁soak	-5298
▁sting	-5299
▁Cla	-5300
▁ladybug	-5301
▁recognize	-5302
ales	-5303
▁realize	-5304
▁beha	-5305
▁peel	-5306
▁activ	-5307
▁yelling	-5308
rr	-5309
ishes	-5310
▁area	-5311
▁bend	-5312
▁Jessie	-5313
anny	-5314
▁inch	-5315
▁zero	-5316
▁keeps	-5317
Goodbye	-5318
▁Mil	-5319
▁Rob	-5320
▁rele	-5321
▁pinched	-5322
She	-5323
▁Ad	-5324
▁situ	-5325
▁prune	-5326
▁mission	-5327
▁encourage	-5328
uing	-5329
ashed	-5330
▁snail	-5331
va	-5332
ffic	-5333
▁keys	-5334
▁winning	-5335
rol	-5336
▁exit	-5337
▁ruin	-5338
▁exactly	-5339
▁wondering	-5340
▁Bir	-5341
▁Yes	-5342
▁accom	-5343
▁jogged	-5344
▁traffic	-5345
▁wagging	-5346
ley	-5347
mare	-5348
▁Abby	-5349
▁olives	-5350
▁studied	-5351
▁zooming	-5352
▁stirring	-5353
▁For	-5354
▁Kay	-5355
▁tune	-5356
▁lines	-5357
▁loose	-5358
▁pastel	-5359
▁zigzag	-5360
riage	-5361
▁cape	-5362
▁sneaked	-5363
▁wreck	-5364
▁tugged	-5365
▁release	-5366
▁satisfied	-5367
ib	-5368
▁eight	-5369
▁siren	-5370
▁oxygen	-5371
▁bunnies	-5372
▁tickets	-5373
looking	-5374
gers	-5375
▁unlocked	-5376
▁underneath	-5377
Or	-5378
Daddy	-5379
▁ago	-5380
▁challenge	-5381
Ye	-5382
▁honk	-5383
▁outdo	-5384
▁Claire	-5385
▁landsc	-5386
▁buckets	-5387
▁slapped	-5388
▁instruct	-5389
▁nightmare	-5390
▁fascinated	-5391
▁caut	-5392
▁nicer	-5393
▁accompl	-5394
▁web	-5395
▁Stop	-5396
▁shivering	-5397
▁Mart	-5398
▁loving	-5399
▁pockets	-5400
▁stretching	-5401
▁piles	-5402
▁Hannah	-5403
▁punished	-5404
▁Carl	-5405
▁dent	-5406
▁solut	-5407
▁mittens	-5408
▁planned	-5409
▁protected	-5410
▁neighbourhood	-5411
zen	-5412
▁competition	-5413
▁Lulu	-5414
▁draws	-5415
▁properly	-5416
▁gathering	-5417
▁items	-5418
▁Afterwards	-5419
▁Ha	-5420
▁control	-5421
▁supplies	-5422
▁emergency	-5423
▁Thom	-5424
▁lied	-5425
▁shoulders	-5426
indy	-5427
▁parked	-5428
▁travell	-5429
▁Mad	-5430
▁sights	-5431
▁Susan	-5432
▁perfor	-5433
▁soaring	-5434
▁landscape	-5435
ik	-5436
œCan	-5437
▁markers	-5438
kins	-5439
œDon	-5440
▁Itâ	-5441
▁Coco	-5442
▁deser	-5443
▁fetch	-5444
▁pearl	-5445
▁ruler	-5446
▁Out	-5447
▁bouncy	-5448
▁frosting	-5449
ica	-5450
▁ann	-5451
▁struck	-5452
▁touching	-5453
▁instructions	-5454
▁burrow	-5455
.'	-5456
Happy	-5457
▁Matt	-5458
▁loaded	-5459
▁peaches	-5460
▁printed	-5461
inda	-5462
▁sisters	-5463
thank	-5464
▁foods	-5465
▁barely	-5466
▁muscles	-5467
▁introduc	-5468
œLook	-5469
▁marks	-5470
agull	-5471
bbing	-5472
▁opin	-5473
▁crumb	-5474
▁drift	-5475
▁stole	-5476
▁mixing	-5477
▁victory	-5478
▁increase	-5479
▁dam	-5480
▁budge	-5481
▁tonight	-5482
▁rainbows	-5483
▁applauded	-5484
▁mast	-5485
▁frozen	-5486
▁silence	-5487
ury	-5488
bric	-5489
▁une	-5490
▁east	-5491
▁sides	-5492
▁Rabbit	-5493
▁fabric	-5494
▁rocked	-5495
▁strings	-5496
▁ourselves	-5497
▁Did	-5498
▁Thomas	-5499
Mama	-5500
▁rubbing	-5501
▁teasing	-5502
€”	-5503
▁vent	-5504
▁giggling	-5505
▁bank	-5506
▁guns	-5507
▁soaked	-5508
▁seagull	-5509
▁Mira	-5510
▁outdoors	-5511
aky	-5512
ena	-5513
▁planets	-5514
tiest	-5515
▁released	-5516
▁completed	-5517
▁prettiest	-5518
edding	-5519
uesday	-5520
▁bunch	-5521
▁chases	-5522
▁bottles	-5523
▁brushes	-5524
▁dragons	-5525
▁pouring	-5526
▁scurried	-5527
▁sweeties	-5528
▁pears	-5529
▁vowed	-5530
▁prints	-5531
▁season	-5532
▁1	-5533
oed	-5534
▁west	-5535
▁stair	-5536
▁movies	-5537
▁purred	-5538
▁Tuesday	-5539
▁bloomed	-5540
▁surface	-5541
bies	-5542
▁Hop	-5543
▁tim	-5544
▁poking	-5545
▁demanded	-5546
nes	-5547
▁letâ	-5548
▁baked	-5549
▁tickle	-5550
▁introduce	-5551
ux	-5552
ateri	-5553
▁steep	-5554
▁materi	-5555
▁camping	-5556
▁discovering	-5557
▁broom	-5558
imy	-5559
▁Jeff	-5560
▁sighs	-5561
▁winner	-5562
uctantly	-5563
▁dragged	-5564
▁muffins	-5565
Ex	-5566
▁Jon	-5567
ednes	-5568
▁babies	-5569
ednesday	-5570
▁catches	-5571
▁Ju	-5572
▁urged	-5573
▁machines	-5574
▁Wednesday	-5575
▁mentioned	-5576
Mia	-5577
zie	-5578
▁Gr	-5579
▁lux	-5580
▁Slow	-5581
▁da	-5582
icked	-5583
œThis	-5584
œHello	-5585
▁herbs	-5586
▁beard	-5587
▁roaring	-5588
▁singer	-5589
▁confident	-5590
▁screaming	-5591
ora	-5592
▁guys	-5593
▁Jenna	-5594
▁cones	-5595
▁project	-5596
▁interest	-5597
▁Lou	-5598
▁drives	-5599
▁stamps	-5600
▁horns	-5601
avi	-5602
jam	-5603
▁powers	-5604
▁texture	-5605
▁pretends	-5606
▁Jones	-5607
though	-5608
▁passing	-5609
ern	-5610
▁crowd	-5611
▁wound	-5612
▁contest	-5613
ason	-5614
▁Both	-5615
▁chips	-5616
▁goals	-5617
▁ranger	-5618
▁ribbons	-5619
▁studying	-5620
▁balancing	-5621
Ah	-5622
▁Adam	-5623
▁expect	-5624
▁result	-5625
▁matched	-5626
▁disagree	-5627
▁sausages	-5628
▁pout	-5629
▁Lizzy	-5630
▁sorted	-5631
▁marriage	-5632
▁curly	-5633
▁highest	-5634
▁cal	-5635
▁Pipp	-5636
▁forgi	-5637
▁gazed	-5638
▁suitc	-5639
▁kicking	-5640
▁pebbles	-5641
▁cuts	-5642
▁shock	-5643
▁patience	-5644
▁reluctantly	-5645
▁shelves	-5646
▁shivered	-5647
▁chat	-5648
▁strike	-5649
▁hugging	-5650
▁repeated	-5651
▁ge	-5652
▁Linda	-5653
fit	-5654
▁Zoom	-5655
▁youth	-5656
▁waiter	-5657
▁curtains	-5658
▁acted	-5659
▁fault	-5660
▁sway	-5661
▁grant	-5662
▁wedding	-5663
▁flags	-5664
▁plenty	-5665
die	-5666
▁Luke	-5667
▁figured	-5668
xp	-5669
▁ti	-5670
▁Bye	-5671
Somet	-5672
▁Cindy	-5673
▁Always	-5674
▁matching	-5675
▁goodnight	-5676
▁threat	-5677
▁paintings	-5678
▁twinkling	-5679
▁fart	-5680
▁outfit	-5681
▁cautious	-5682
▁included	-5683
eezing	-5684
▁dusty	-5685
▁slimy	-5686
▁chewing	-5687
▁policeman	-5688
▁regretted	-5689
Joh	-5690
esome	-5691
▁entire	-5692
▁sweets	-5693
▁solution	-5694
▁introduced	-5695
▁Mon	-5696
▁theirs	-5697
▁towels	-5698
Remember	-5699
▁sorting	-5700
▁blooming	-5701
▁penguins	-5702
▁situation	-5703
irts	-5704
ledge	-5705
usted	-5706
▁thro	-5707
▁guest	-5708
xpected	-5709
▁recorded	-5710
▁Kayla	-5711
▁stare	-5712
▁Slowly	-5713
▁throat	-5714
▁include	-5715
you	-5716
ults	-5717
ivery	-5718
▁flat	-5719
▁achieve	-5720
▁rocking	-5721
uly	-5722
hins	-5723
▁unexpected	-5724
Uh	-5725
bl	-5726
mas	-5727
bert	-5728
▁heel	-5729
▁Christ	-5730
▁knowledge	-5731
▁Lizz	-5732
▁Milo	-5733
▁canâ	-5734
▁Suzie	-5735
▁prunes	-5736
▁dentist	-5737
igi	-5738
▁blink	-5739
▁agrees	-5740
▁rescued	-5741
▁cheering	-5742
▁sticking	-5743
▁librarian	-5744
cuse	-5745
▁snugg	-5746
▁truly	-5747
▁staring	-5748
▁spraying	-5749
jamas	-5750
▁roots	-5751
▁luxury	-5752
▁awesome	-5753
vin	-5754
Yeah	-5755
œDonâ	-5756
▁completely	-5757
iar	-5758
hell	-5759
▁ast	-5760
itely	-5761
▁caused	-5762
▁written	-5763
▁homework	-5764
...	-5765
▁Aunt	-5766
▁motion	-5767
▁lap	-5768
▁uses	-5769
▁learns	-5770
▁arguing	-5771
▁growling	-5772
▁boom	-5773
▁creating	-5774
▁Christmas	-5775
▁zookeeper	-5776
▁importance	-5777
Al	-5778
Excuse	-5779
▁Lizzie	-5780
▁bravery	-5781
▁trembling	-5782
▁wandering	-5783
hello	-5784
▁Jazz	-5785
▁exha	-5786
▁dared	-5787
▁roads	-5788
▁shined	-5789
▁Mel	-5790
▁slap	-5791
▁scales	-5792
▁workers	-5793
▁crackers	-5794
▁delivery	-5795
go	-5796
oys	-5797
njoy	-5798
▁rolls	-5799
▁arrive	-5800
▁direction	-5801
œOh	-5802
vers	-5803
immer	-5804
▁Tess	-5805
▁safer	-5806
▁reaching	-5807
▁replac	-5808
▁kneeled	-5809
asm	-5810
▁bead	-5811
▁belly	-5812
▁Nick	-5813
▁comm	-5814
▁scra	-5815
▁wires	-5816
▁snakes	-5817
▁struggle	-5818
boat	-5819
▁expected	-5820
▁exhausted	-5821
Gra	-5822
▁healed	-5823
▁ventured	-5824
▁organizing	-5825
opes	-5826
▁mane	-5827
▁wink	-5828
Mum	-5829
une	-5830
ences	-5831
▁Gigi	-5832
lowers	-5833
▁greet	-5834
▁crumbs	-5835
▁becoming	-5836
lee	-5837
Mummy	-5838
▁Lena	-5839
▁lamb	-5840
▁Leave	-5841
▁crabs	-5842
▁usual	-5843
▁flames	-5844
▁dolphins	-5845
▁Ex	-5846
oline	-5847
▁Johnson	-5848
▁pajamas	-5849
▁inviting	-5850
▁Mick	-5851
angled	-5852
▁leader	-5853
▁owners	-5854
▁worries	-5855
irm	-5856
When	-5857
▁Two	-5858
▁united	-5859
▁storekeeper	-5860
▁Ma	-5861
œWhy	-5862
▁Buzzy	-5863
▁Pandy	-5864
▁baker	-5865
▁relief	-5866
▁packing	-5867
▁pencils	-5868
▁heav	-5869
John	-5870
▁Dolly	-5871
▁Happy	-5872
▁Y	-5873
▁boo	-5874
▁cash	-5875
▁firm	-5876
▁pots	-5877
▁Julia	-5878
▁timer	-5879
▁traveled	-5880
▁polishing	-5881
▁fairies	-5882
▁suitcase	-5883
▁Nan	-5884
▁youâ	-5885
▁closes	-5886
▁cough	-5887
▁partic	-5888
▁worker	-5889
▁rockets	-5890
▁Momo	-5891
▁trips	-5892
▁direct	-5893
▁patted	-5894
▁vanish	-5895
▁peeking	-5896
▁radishes	-5897
Just	-5898
▁Quack	-5899
▁seems	-5900
▁wasnâ	-5901
▁prayer	-5902
▁valued	-5903
▁quacked	-5904
▁Fox	-5905
▁Finn	-5906
▁fara	-5907
▁misses	-5908
▁faraway	-5909
▁startled	-5910
iding	-5911
▁cent	-5912
▁countryside	-5913
▁itchy	-5914
▁Friend	-5915
▁flavor	-5916
▁photos	-5917
▁melting	-5918
▁reveal	-5919
▁Jessica	-5920
▁usually	-5921
Sometimes	-5922
▁groceries	-5923
▁wiggled	-5924
▁restored	-5925
▁interested	-5926
▁cans	-5927
▁fuzzy	-5928
▁stern	-5929
▁removed	-5930
▁balanced	-5931
ords	-5932
▁Che	-5933
▁Tara	-5934
▁scru	-5935
▁Being	-5936
▁seesaw	-5937
▁knights	-5938
▁resting	-5939
▁risk	-5940
▁stem	-5941
▁chuck	-5942
▁opening	-5943
▁teaches	-5944
Bad	-5945
Fine	-5946
▁wrist	-5947
▁winked	-5948
▁cracked	-5949
▁opinion	-5950
ids	-5951
▁cous	-5952
▁leap	-5953
▁desert	-5954
▁sneaky	-5955
▁observed	-5956
▁everybody	-5957
▁rubs	-5958
▁hissed	-5959
▁twinkle	-5960
pite	-5961
▁unf	-5962
▁cott	-5963
▁sled	-5964
▁cause	-5965
▁particular	-5966
▁den	-5967
▁lined	-5968
▁poems	-5969
▁roses	-5970
▁seven	-5971
▁pastels	-5972
▁princesses	-5973
▁Follow	-5974
▁signed	-5975
▁tickled	-5976
▁Jac	-5977
▁faced	-5978
▁tractor	-5979
▁activities	-5980
▁magnets	-5981
brush	-5982
▁swooped	-5983
▁seashell	-5984
▁snowballs	-5985
Run	-5986
umm	-5987
dies	-5988
rance	-5989
▁Doggy	-5990
▁reply	-5991
▁silent	-5992
▁wasted	-5993
▁cubes	-5994
▁rings	-5995
▁adding	-5996
▁single	-5997
▁staying	-5998
▁beads	-5999
▁coloured	-6000
▁replaced	-6001
▁sandcastles	-6002
▁firefighters	-6003
▁hi	-6004
▁kites	-6005
▁swirl	-6006
▁marker	-6007
▁stolen	-6008
▁provided	-6009
▁Sorry	-6010
▁Sophia	-6011
▁remote	-6012
▁farther	-6013
▁however	-6014
▁tricked	-6015
▁Put	-6016
isies	-6017
▁Larry	-6018
▁freed	-6019
▁ga	-6020
Then	-6021
▁Emmy	-6022
▁naps	-6023
▁daisies	-6024
▁lung	-6025
œWhatâ	-6026
▁wears	-6027
▁dipped	-6028
▁cashier	-6029
▁paddled	-6030
▁lollipops	-6031
▁bowls	-6032
▁spike	-6033
▁Days	-6034
▁Earth	-6035
▁Jacob	-6036
▁colored	-6037
▁pastries	-6038
▁Enjoy	-6039
▁badge	-6040
ctar	-6041
▁Keep	-6042
▁nectar	-6043
▁sobbed	-6044
▁Without	-6045
▁celebration	-6046
▁Ow	-6047
coat	-6048
▁Many	-6049
▁logs	-6050
▁aff	-6051
▁slam	-6052
œMommy	-6053
▁minerals	-6054
▁Everybody	-6055
▁protecting	-6056
▁copy	-6057
▁liqu	-6058
▁Jacky	-6059
▁awake	-6060
▁marked	-6061
▁stroll	-6062
▁tallest	-6063
▁darkness	-6064
▁squealed	-6065
▁ty	-6066
▁Rover	-6067
▁bumpy	-6068
▁smiley	-6069
▁filling	-6070
▁forehead	-6071
▁splashes	-6072
abel	-6073
▁Bess	-6074
▁robb	-6075
▁snat	-6076
▁wipes	-6077
▁helmets	-6078
▁talented	-6079
bbly	-6080
hile	-6081
▁Maya	-6082
▁gems	-6083
▁twin	-6084
▁masks	-6085
▁younger	-6086
▁cautiously	-6087
tle	-6088
▁gaze	-6089
▁stays	-6090
▁Nothing	-6091
▁glasses	-6092
▁yourselves	-6093
yond	-6094
▁wow	-6095
▁blows	-6096
▁reads	-6097
▁beyond	-6098
▁covers	-6099
▁polished	-6100
▁raincoat	-6101
▁explorers	-6102
▁directions	-6103
▁tipt	-6104
▁health	-6105
boo	-6106
ddled	-6107
▁cust	-6108
▁Watch	-6109
▁Water	-6110
▁sweat	-6111
▁attack	-6112
▁actions	-6113
▁listens	-6114
▁Exc	-6115
▁Squ	-6116
▁miles	-6117
▁entrance	-6118
▁sailboat	-6119
▁fluttered	-6120
▁accomplish	-6121
▁Robby	-6122
▁behavi	-6123
▁pedals	-6124
▁chuckled	-6125
▁families	-6126
hee	-6127
▁Get	-6128
▁Jay	-6129
▁dots	-6130
▁refle	-6131
▁clowns	-6132
▁secure	-6133
▁tricky	-6134
▁mushrooms	-6135
▁yesterday	-6136
fl	-6137
▁knees	-6138
▁somebody	-6139
▁speaking	-6140
sty	-6141
cers	-6142
affes	-6143
▁bars	-6144
▁buying	-6145
▁custom	-6146
▁joking	-6147
▁seeker	-6148
▁Excited	-6149
iki	-6150
▁opp	-6151
▁conn	-6152
▁ripe	-6153
▁Pinky	-6154
▁hider	-6155
▁insects	-6156
ppers	-6157
▁bumps	-6158
▁froze	-6159
▁cheeks	-6160
▁knocks	-6161
▁Olive	-6162
▁parties	-6163
▁giraffes	-6164
▁beginning	-6165
€˜	-6166
ners	-6167
▁mes	-6168
▁liquid	-6169
▁mesmer	-6170
▁Lau	-6171
▁Lia	-6172
Tommy	-6173
itches	-6174
▁thorn	-6175
▁scaring	-6176
▁pleasure	-6177
▁determination	-6178
uzz	-6179
▁mi	-6180
▁Bird	-6181
▁Mikey	-6182
▁backed	-6183
▁videos	-6184
▁candies	-6185
▁folding	-6186
▁handful	-6187
▁scarves	-6188
▁drums	-6189
▁Sparky	-6190
▁paddle	-6191
▁leading	-6192
▁recording	-6193
Ro	-6194
Jack	-6195
iles	-6196
ouch	-6197
▁deal	-6198
▁mixture	-6199
▁pause	-6200
▁arrows	-6201
▁glee	-6202
▁piggy	-6203
▁choices	-6204
▁instrum	-6205
▁tangled	-6206
alph	-6207
band	-6208
Those	-6209
▁tasks	-6210
▁lighter	-6211
▁weeping	-6212
▁Mo	-6213
▁lower	-6214
▁sense	-6215
▁yells	-6216
▁pouted	-6217
▁improved	-6218
▁recommended	-6219
urry	-6220
igers	-6221
▁click	-6222
▁Robert	-6223
▁calmed	-6224
eke	-6225
ths	-6226
▁Far	-6227
▁rusty	-6228
▁cupcakes	-6229
lay	-6230
▁insp	-6231
▁Laura	-6232
▁fever	-6233
▁salty	-6234
▁paying	-6235
▁def	-6236
arter	-6237
arling	-6238
▁Ralph	-6239
▁steer	-6240
▁bakery	-6241
▁snatched	-6242
▁Cu	-6243
vest	-6244
▁Prin	-6245
▁rumble	-6246
▁bedtime	-6247
▁ruining	-6248
Rex	-6249
▁Amel	-6250
▁diving	-6251
▁snowmen	-6252
▁widened	-6253
▁hesitated	-6254
▁celebrating	-6255
icky	-6256
indr	-6257
▁Gina	-6258
▁Hoot	-6259
▁kicks	-6260
▁raindr	-6261
▁afterwards	-6262
?",	-6263
rig	-6264
rious	-6265
▁wins	-6266
▁behaved	-6267
▁jackets	-6268
▁smarter	-6269
aker	-6270
▁snuck	-6271
▁stroked	-6272
▁flapping	-6273
▁Pam	-6274
▁lun	-6275
▁squares	-6276
sequ	-6277
▁Sque	-6278
▁Binky	-6279
▁dances	-6280
▁objects	-6281
no	-6282
iled	-6283
▁cowb	-6284
▁shirts	-6285
Ch	-6286
▁impo	-6287
▁Mabel	-6288
▁annoy	-6289
▁consequ	-6290
▁unpacked	-6291
▁performan	-6292
▁impossible	-6293
ans	-6294
ishy	-6295
▁Todd	-6296
▁Bluey	-6297
▁tigers	-6298
▁stomped	-6299
oey	-6300
Next	-6301
bell	-6302
cope	-6303
▁acting	-6304
▁creamy	-6305
▁hallway	-6306
▁achieved	-6307
▁delivered	-6308
▁aren	-6309
▁choo	-6310
▁rule	-6311
ronaut	-6312
▁tramp	-6313
▁artist	-6314
▁deserve	-6315
▁astronaut	-6316
▁materials	-6317
atur	-6318
▁noon	-6319
igning	-6320
▁Wally	-6321
▁noses	-6322
▁indeed	-6323
ccoon	-6324
▁pans	-6325
itched	-6326
▁chefs	-6327
▁temper	-6328
▁wouldnâ	-6329
▁ornaments	-6330
▁raindrops	-6331
▁Ash	-6332
▁rip	-6333
▁raccoon	-6334
Shh	-6335
▁Els	-6336
▁sibl	-6337
▁wraps	-6338
▁Frosty	-6339
▁pointy	-6340
▁needles	-6341
▁basement	-6342
▁siblings	-6343
▁scratches	-6344
▁complained	-6345
▁complaining	-6346
tuce	-6347
ility	-6348
ivity	-6349
▁Abbie	-6350
▁losing	-6351
▁lettuce	-6352
▁Princess	-6353
?'	-6354
▁hus	-6355
▁June	-6356
▁sale	-6357
▁Sadie	-6358
▁tempt	-6359
▁Robbie	-6360
▁darker	-6361
▁drifted	-6362
▁scrubbed	-6363
▁trampoline	-6364
cl	-6365
oni	-6366
▁refu	-6367
▁burst	-6368
▁meals	-6369
▁passen	-6370
▁travelled	-6371
▁fluttering	-6372
weet	-6373
▁Cra	-6374
▁dads	-6375
ndpare	-6376
▁Martha	-6377
▁screws	-6378
▁teased	-6379
▁consequences	-6380
aren	-6381
rigued	-6382
▁puppies	-6383
▁experien	-6384
▁swimsuit	-6385
▁discussed	-6386
▁creativity	-6387
▁Po	-6388
▁Kiki	-6389
▁chop	-6390
▁Thanks	-6391
▁forgets	-6392
▁neither	-6393
ekend	-6394
▁merry	-6395
▁stool	-6396
umbling	-6397
▁weekend	-6398
▁wrapping	-6399
œDo	-6400
▁coup	-6401
▁helpers	-6402
▁grandpare	-6403
▁stung	-6404
▁including	-6405
▁gracefully	-6406
▁performance	-6407
ades	-6408
œWow	-6409
▁fears	-6410
▁Goodbye	-6411
▁tiptoed	-6412
▁tunnels	-6413
ded	-6414
▁Li	-6415
▁mer	-6416
Great	-6417
▁Karen	-6418
▁avoid	-6419
▁stain	-6420
▁third	-6421
▁cuddly	-6422
▁dollars	-6423
▁enthusi	-6424
▁temperature	-6425
▁Q	-6426
ept	-6427
▁wonâ	-6428
anging	-6429
▁Along	-6430
▁gross	-6431
▁source	-6432
▁hearing	-6433
▁enthusiasm	-6434
Today	-6435
itted	-6436
▁fact	-6437
▁separated	-6438
anes	-6439
▁afford	-6440
▁growls	-6441
▁neatly	-6442
immering	-6443
▁Although	-6444
▁coloring	-6445
▁handsome	-6446
▁shrinking	-6447
oke	-6448
▁Abi	-6449
œCome	-6450
▁limes	-6451
▁During	-6452
▁couple	-6453
▁onions	-6454
▁husband	-6455
▁zipping	-6456
atul	-6457
step	-6458
ueen	-6459
▁ech	-6460
river	-6461
▁chip	-6462
▁hides	-6463
▁Farmer	-6464
▁rising	-6465
▁rivers	-6466
▁snowfl	-6467
▁accomplishment	-6468
cus	-6469
Meow	-6470
▁Zoey	-6471
uggles	-6472
▁cousin	-6473
▁slices	-6474
▁dollhouse	-6475
ky	-6476
ntil	-6477
▁Judy	-6478
▁bully	-6479
▁plans	-6480
▁swept	-6481
▁windy	-6482
▁beloved	-6483
▁grabbing	-6484
Ew	-6485
int	-6486
choo	-6487
▁gri	-6488
▁beam	-6489
▁Janie	-6490
▁Patty	-6491
▁Until	-6492
▁horiz	-6493
▁grassy	-6494
▁promises	-6495
▁peacefully	-6496
pr	-6497
hog	-6498
▁cor	-6499
▁Snuggles	-6500
▁blocking	-6501
▁rewarded	-6502
▁Bee	-6503
▁bows	-6504
▁nine	-6505
▁Amelia	-6506
▁thrown	-6507
▁horizon	-6508
▁batteries	-6509
▁sprinkled	-6510
Roar	-6511
weed	-6512
arshm	-6513
▁Davey	-6514
▁damage	-6515
▁players	-6516
▁willing	-6517
▁students	-6518
arshmallow	-6519
Have	-6520
▁todd	-6521
▁Those	-6522
▁among	-6523
▁dreamt	-6524
▁muscle	-6525
▁leaning	-6526
▁matters	-6527
▁neighbours	-6528
Oops	-6529
Whee	-6530
▁Zip	-6531
▁aud	-6532
▁pecked	-6533
▁recipe	-6534
▁darling	-6535
▁napkins	-6536
▁forgiven	-6537
▁backwards	-6538
▁Ry	-6539
iece	-6540
▁tails	-6541
▁bodies	-6542
▁seconds	-6543
▁wishing	-6544
▁wept	-6545
▁Since	-6546
▁hitting	-6547
▁seaweed	-6548
▁printing	-6549
▁decorating	-6550
œHi	-6551
▁hour	-6552
▁alien	-6553
▁heading	-6554
▁planning	-6555
the	-6556
▁dod	-6557
▁Tuna	-6558
▁prett	-6559
▁reass	-6560
▁buzzed	-6561
▁feeding	-6562
▁gobbled	-6563
▁praying	-6564
▁Birthday	-6565
▁starfish	-6566
▁Sim	-6567
œYouâ	-6568
▁center	-6569
▁concer	-6570
▁triangles	-6571
▁gasp	-6572
▁repa	-6573
▁Nobody	-6574
▁dancers	-6575
▁heavier	-6576
▁snuggle	-6577
▁rustling	-6578
Woof	-6579
▁pops	-6580
▁drawn	-6581
▁forks	-6582
▁Listen	-6583
▁Mickey	-6584
▁prettier	-6585
▁repaired	-6586
▁warnings	-6587
▁requested	-6588
▁surroundings	-6589
wk	-6590
▁10	-6591
▁Sun	-6592
▁det	-6593
▁uns	-6594
▁Queen	-6595
▁spong	-6596
▁streets	-6597
▁designed	-6598
▁hedgehog	-6599
ados	-6600
▁arr	-6601
▁die	-6602
▁twice	-6603
▁slower	-6604
▁Remember	-6605
▁treehouse	-6606
▁touc	-6607
▁woof	-6608
▁plain	-6609
▁Stella	-6610
▁poster	-6611
▁wiping	-6612
▁magician	-6613
Le	-6614
fus	-6615
arrow	-6616
itude	-6617
▁Back	-6618
▁Boun	-6619
▁ache	-6620
▁hawk	-6621
▁lungs	-6622
▁slammed	-6623
▁vanilla	-6624
▁embarrass	-6625
eds	-6626
fall	-6627
ippy	-6628
ongr	-6629
irrel	-6630
▁thud	-6631
▁hesitant	-6632
▁creations	-6633
▁intrigued	-6634
▁forgetting	-6635
▁marshmallow	-6636
▁superheroes	-6637
Time	-6638
ments	-6639
▁adult	-6640
▁ropes	-6641
▁counts	-6642
▁avocados	-6643
▁spoonful	-6644
▁sy	-6645
▁skunk	-6646
▁potion	-6647
ongratul	-6648
▁audience	-6649
▁Dr	-6650
▁Sc	-6651
▁Owl	-6652
▁wag	-6653
▁flas	-6654
▁nood	-6655
ausing	-6656
▁scamp	-6657
▁resisted	-6658
▁spreading	-6659
ably	-6660
▁focu	-6661
▁blast	-6662
▁geese	-6663
▁stands	-6664
▁toddler	-6665
▁breathed	-6666
Boo	-6667
Lila	-6668
▁Ang	-6669
ently	-6670
ition	-6671
▁pens	-6672
▁softer	-6673
▁sponge	-6674
▁swords	-6675
▁warmer	-6676
▁borrowed	-6677
▁familiar	-6678
llen	-6679
▁san	-6680
▁joyful	-6681
▁Friends	-6682
▁presses	-6683
▁imagining	-6684
▁delivering	-6685
--	-6686
cake	-6687
▁Ryan	-6688
▁Pippin	-6689
▁screwd	-6690
▁peppers	-6691
▁scraped	-6692
▁touches	-6693
ido	-6694
▁Eva	-6695
▁age	-6696
▁Stan	-6697
▁pours	-6698
▁throughout	-6699
endy	-6700
▁nibb	-6701
▁munch	-6702
▁honked	-6703
▁squeak	-6704
▁zebras	-6705
▁changing	-6706
▁mesmerized	-6707
▁firefighter	-6708
eal	-6709
Yummy	-6710
▁Zara	-6711
▁baths	-6712
▁glued	-6713
▁polar	-6714
▁roars	-6715
▁shops	-6716
▁talks	-6717
▁wrink	-6718
▁sports	-6719
▁focused	-6720
▁remembering	-6721
▁screwdriver	-6722
opsy	-6723
▁sank	-6724
▁Momma	-6725
▁corners	-6726
▁dropping	-6727
▁whispers	-6728
▁curiously	-6729
▁nur	-6730
aster	-6731
▁least	-6732
▁lifts	-6733
▁swall	-6734
▁swallowed	-6735
ael	-6736
▁Fido	-6737
▁Only	-6738
▁puff	-6739
ichael	-6740
ounced	-6741
▁Maddy	-6742
▁mints	-6743
▁Granny	-6744
▁express	-6745
▁granted	-6746
▁blinking	-6747
▁Meg	-6748
▁Bessie	-6749
▁spices	-6750
▁spikes	-6751
▁Squeaky	-6752
▁hopeful	-6753
▁sailors	-6754
▁squishy	-6755
▁toaster	-6756
jo	-6757
arac	-6758
▁Elly	-6759
▁crew	-6760
▁peck	-6761
▁neare	-6762
Grandma	-6763
▁Michael	-6764
▁postman	-6765
▁reflection	-6766
▁Take	-6767
▁cond	-6768
▁poss	-6769
▁feast	-6770
▁slips	-6771
▁steady	-6772
▁pennies	-6773
▁Squirrel	-6774
▁necklaces	-6775
▁refreshing	-6776
ears	-6777
▁Ray	-6778
▁sniffs	-6779
▁tested	-6780
▁wobbled	-6781
▁grandparents	-6782
▁marshmallows	-6783
yes	-6784
▁oh	-6785
osen	-6786
▁Frog	-6787
▁rout	-6788
▁dived	-6789
▁wakes	-6790
▁chosen	-6791
▁shaped	-6792
▁oysters	-6793
▁sneezing	-6794
▁increased	-6795
▁2	-6796
Like	-6797
worm	-6798
▁Our	-6799
▁Dani	-6800
▁Stay	-6801
▁spins	-6802
▁flight	-6803
▁reason	-6804
▁sewing	-6805
▁greeted	-6806
vil	-6807
mates	-6808
▁Love	-6809
▁tiss	-6810
▁Birdy	-6811
▁Simon	-6812
▁aside	-6813
▁heroes	-6814
▁joining	-6815
▁rushing	-6816
▁behaving	-6817
otten	-6818
unched	-6819
attered	-6820
▁kittens	-6821
▁pigeons	-6822
Our	-6823
Some	-6824
ertain	-6825
▁swans	-6826
▁wiggle	-6827
fire	-6828
▁Spl	-6829
▁dip	-6830
▁occ	-6831
stick	-6832
years	-6833
▁defe	-6834
▁aimed	-6835
▁biting	-6836
▁puppet	-6837
▁tapped	-6838
▁dresser	-6839
▁playroom	-6840
lves	-6841
▁Louise	-6842
▁onward	-6843
▁plucked	-6844
▁appreciation	-6845
▁Fe	-6846
rect	-6847
vant	-6848
▁Baa	-6849
▁moo	-6850
▁Fire	-6851
▁Mina	-6852
▁trot	-6853
▁Thatâ	-6854
▁confl	-6855
▁wrigg	-6856
aracter	-6857
▁adults	-6858
▁rotten	-6859
▁sparks	-6860
▁sending	-6861
▁encourag	-6862
▁trembled	-6863
▁character	-6864
▁scampered	-6865
Fo	-6866
eezes	-6867
iment	-6868
▁explo	-6869
▁offic	-6870
▁scored	-6871
Lucy	-6872
meal	-6873
œNow	-6874
▁hops	-6875
▁spat	-6876
▁Wendy	-6877
▁warri	-6878
▁master	-6879
▁flavors	-6880
▁bells	-6881
▁daring	-6882
▁guests	-6883
▁convers	-6884
▁drawers	-6885
▁waddled	-6886
▁panicked	-6887
▁strongest	-6888
while	-6889
▁pins	-6890
▁Under	-6891
▁manag	-6892
▁rainy	-6893
▁amount	-6894
▁tossed	-6895
▁napping	-6896
▁oatmeal	-6897
▁stacked	-6898
▁worrying	-6899
▁performing	-6900
cky	-6901
rrr	-6902
œMy	-6903
▁Ana	-6904
▁coc	-6905
▁scen	-6906
▁proper	-6907
▁wobbly	-6908
▁causing	-6909
▁freedom	-6910
▁respected	-6911
▁sunflowers	-6912
Mine	-6913
▁Try	-6914
retty	-6915
▁Well	-6916
▁Zero	-6917
▁mate	-6918
▁Flopsy	-6919
▁angels	-6920
▁loading	-6921
▁noodles	-6922
▁seashells	-6923
▁Up	-6924
..."	-6925
▁evil	-6926
▁gest	-6927
▁sadd	-6928
▁Janey	-6929
▁battle	-6930
▁correct	-6931
isc	-6932
▁prove	-6933
▁lessons	-6934
▁respond	-6935
▁gardener	-6936
▁stitches	-6937
ppies	-6938
▁craft	-6939
▁shrug	-6940
▁Ashley	-6941
▁cloudy	-6942
▁tables	-6943
▁unsure	-6944
▁Curious	-6945
▁doorway	-6946
▁cushions	-6947
▁Ga	-6948
▁Im	-6949
onna	-6950
▁Des	-6951
▁Joan	-6952
▁worn	-6953
▁faded	-6954
▁grows	-6955
▁leads	-6956
▁bravest	-6957
iley	-6958
œMom	-6959
▁Rock	-6960
▁Zoomy	-6961
▁rains	-6962
▁action	-6963
▁firmly	-6964
▁designs	-6965
▁firefly	-6966
▁crashing	-6967
▁duckling	-6968
▁frowning	-6969
▁smallest	-6970
▁watering	-6971
▁und	-6972
▁earn	-6973
▁surv	-6974
▁clues	-6975
▁coral	-6976
▁defin	-6977
▁sails	-6978
▁wider	-6979
▁Jackie	-6980
▁months	-6981
▁tissue	-6982
▁twisty	-6983
▁Yesterday	-6984
▁passengers	-6985
▁ais	-6986
▁Mean	-6987
▁cosy	-6988
▁pays	-6989
bbling	-6990
please	-6991
▁Quick	-6992
▁height	-6993
▁humans	-6994
▁behavior	-6995
▁politely	-6996
▁nervously	-6997
hew	-6998
▁Sof	-6999
▁bru	-7000
dress	-7001
▁Honey	-7002
▁Mouse	-7003
urprise	-7004
▁robber	-7005
▁overcome	-7006
▁streamers	-7007
▁encouraging	-7008
▁surrendered	-7009
emma	-7010
child	-7011
onies	-7012
▁ties	-7013
▁belts	-7014
▁flown	-7015
▁drivers	-7016
▁playtime	-7017
ening	-7018
▁Star	-7019
▁fleas	-7020
▁gonna	-7021
▁merma	-7022
▁nearly	-7023
▁yielded	-7024
▁pumpkins	-7025
▁definitely	-7026
▁grandchild	-7027
▁ni	-7028
bird	-7029
iona	-7030
▁inj	-7031
Follow	-7032
undred	-7033
▁laying	-7034
▁poppies	-7035
▁crossing	-7036
▁performed	-7037
▁travelling	-7038
Bob	-7039
ody	-7040
▁yel	-7041
œWell	-7042
▁nuzz	-7043
▁tuck	-7044
▁Chris	-7045
▁Still	-7046
▁races	-7047
▁shady	-7048
▁thatâ	-7049
alloween	-7050
▁blocked	-7051
▁lifting	-7052
▁shovels	-7053
▁ignoring	-7054
▁Meanwhile	-7055
▁quarreling	-7056
Beep	-7057
athy	-7058
▁Bow	-7059
Quick	-7060
▁Bong	-7061
▁ease	-7062
▁suits	-7063
ientist	-7064
▁commun	-7065
▁wobble	-7066
▁yelped	-7067
antastic	-7068
▁results	-7069
▁symbols	-7070
▁brushing	-7071
▁campfire	-7072
▁twinkled	-7073
▁scientist	-7074
▁suggestion	-7075
rey	-7076
upt	-7077
Very	-7078
issa	-7079
lets	-7080
Watch	-7081
eling	-7082
ibbit	-7083
roken	-7084
▁reun	-7085
▁leapt	-7086
▁shown	-7087
▁scurry	-7088
▁Halloween	-7089
acles	-7090
▁bless	-7091
▁pound	-7092
▁colder	-7093
▁ponies	-7094
▁quieter	-7095
▁appreciated	-7096
fly	-7097
▁fills	-7098
▁final	-7099
ighting	-7100
▁fishes	-7101
▁thorns	-7102
▁cobwebs	-7103
▁hairdress	-7104
▁squeezing	-7105
▁waterfall	-7106
▁punishment	-7107
▁snowflakes	-7108
▁Fu	-7109
▁Jax	-7110
▁Eliz	-7111
▁Bongo	-7112
▁Fiona	-7113
▁Kelly	-7114
▁Pippa	-7115
▁edges	-7116
▁Pepper	-7117
▁grandd	-7118
▁officers	-7119
▁reversed	-7120
▁tricycle	-7121
▁fantastic	-7122
▁preparing	-7123
▁surprising	-7124
Sue	-7125
▁Patch	-7126
▁anger	-7127
▁genie	-7128
▁paths	-7129
▁chopped	-7130
▁finishing	-7131
▁passports	-7132
ooky	-7133
Listen	-7134
▁loops	-7135
▁occas	-7136
▁Despite	-7137
▁burying	-7138
▁handing	-7139
▁tighter	-7140
▁suffered	-7141
▁paintbrush	-7142
▁hairdresser	-7143
▁unw	-7144
▁sever	-7145
▁braver	-7146
▁echoed	-7147
▁Snowman	-7148
▁giggles	-7149
▁healing	-7150
▁slither	-7151
▁bandages	-7152
▁distract	-7153
▁reminding	-7154
▁disturbing	-7155
▁X	-7156
Bun	-7157
ppa	-7158
▁Ali	-7159
▁gap	-7160
▁Izzy	-7161
laying	-7162
▁tying	-7163
▁Daniel	-7164
▁Because	-7165
▁forests	-7166
▁several	-7167
▁surfing	-7168
▁smelling	-7169
▁sniffing	-7170
▁surfboard	-7171
rup	-7172
cent	-7173
▁fits	-7174
œWhere	-7175
▁Green	-7176
▁notes	-7177
▁risks	-7178
▁collap	-7179
▁baskets	-7180
▁certain	-7181
▁cleaner	-7182
▁Quackers	-7183
▁connected	-7184
œIf	-7185
rier	-7186
▁Cle	-7187
▁sou	-7188
▁rays	-7189
▁snort	-7190
▁spits	-7191
▁syrup	-7192
▁tipped	-7193
▁licking	-7194
▁conflict	-7195
▁congratul	-7196
ushed	-7197
▁coug	-7198
iscuit	-7199
▁Sofia	-7200
▁maker	-7201
▁Froggy	-7202
▁Pretty	-7203
▁seller	-7204
▁cottage	-7205
▁hundred	-7206
▁puzzled	-7207
▁travels	-7208
▁packages	-7209
▁stopping	-7210
▁sweetest	-7211
vroom	-7212
▁Ally	-7213
▁purr	-7214
broken	-7215
▁conqu	-7216
▁drown	-7217
▁ships	-7218
▁magnif	-7219
▁spooky	-7220
▁efforts	-7221
▁squeaked	-7222
▁believing	-7223
▁breathing	-7224
▁examining	-7225
ca	-7226
erm	-7227
œOf	-7228
bage	-7229
œBut	-7230
▁Ava	-7231
athan	-7232
œOkay	-7233
▁mailed	-7234
▁cuddles	-7235
▁garbage	-7236
Jo	-7237
▁Din	-7238
▁prob	-7239
▁Kevin	-7240
▁frowns	-7241
Surprise	-7242
▁lending	-7243
▁probably	-7244
▁slipping	-7245
▁suffering	-7246
▁whispering	-7247
Wh	-7248
asty	-7249
onse	-7250
rian	-7251
▁elf	-7252
ading	-7253
inger	-7254
▁Rain	-7255
▁shoo	-7256
▁Marie	-7257
▁Start	-7258
▁buses	-7259
▁tubes	-7260
▁Mother	-7261
▁address	-7262
▁mermaid	-7263
▁inchworm	-7264
▁response	-7265
cher	-7266
line	-7267
inkle	-7268
▁Jean	-7269
▁lent	-7270
isions	-7271
▁guide	-7272
▁spells	-7273
▁Feeling	-7274
▁arranged	-7275
▁planting	-7276
▁thoughts	-7277
▁bothering	-7278
▁repeating	-7279
?!"	-7280
mbers	-7281
▁Okay	-7282
▁dump	-7283
▁gears	-7284
▁charge	-7285
▁except	-7286
▁sharks	-7287
▁tablet	-7288
▁gesture	-7289
▁humming	-7290
▁masterp	-7291
▁members	-7292
▁trotted	-7293
▁forgiving	-7294
but	-7295
▁Any	-7296
found	-7297
inted	-7298
▁fins	-7299
▁grip	-7300
▁coach	-7301
▁sewed	-7302
▁damaged	-7303
▁luckily	-7304
▁customers	-7305
▁responsib	-7306
bba	-7307
▁til	-7308
utter	-7309
▁Nana	-7310
▁Barry	-7311
▁Holly	-7312
▁Megan	-7313
▁Peggy	-7314
▁goodby	-7315
▁rather	-7316
▁within	-7317
▁driveway	-7318
▁explorer	-7319
▁decisions	-7320
▁supported	-7321
▁instruments	-7322
€,	-7323
▁Ty	-7324
Vroom	-7325
antha	-7326
▁lies	-7327
▁Angel	-7328
▁Peppa	-7329
▁whose	-7330
▁cotton	-7331
▁annoyed	-7332
▁wasting	-7333
▁goodbyes	-7334
▁chocolates	-7335
ails	-7336
▁Pau	-7337
▁Fuzzy	-7338
▁Satur	-7339
▁antic	-7340
▁knots	-7341
▁weeds	-7342
▁Maddie	-7343
▁Splash	-7344
▁Stitch	-7345
▁nurses	-7346
▁pupils	-7347
▁rotting	-7348
▁soaking	-7349
▁warrior	-7350
▁Fighting	-7351
▁Saturday	-7352
▁reunited	-7353
▁vehicles	-7354
▁accomplished	-7355
Get	-7356
▁Ph	-7357
▁Helen	-7358
▁reapp	-7359
▁teles	-7360
▁calmly	-7361
▁cheers	-7362
▁novels	-7363
▁robots	-7364
▁dangers	-7365
▁although	-7366
▁Excitedly	-7367
▁telescope	-7368
▁understands	-7369
acle	-7370
ilda	-7371
▁mood	-7372
▁Maisy	-7373
▁elbow	-7374
▁focus	-7375
▁stomp	-7376
▁tweet	-7377
▁cowboy	-7378
▁despite	-7379
▁stumble	-7380
▁Samantha	-7381
▁material	-7382
▁newfound	-7383
▁discussing	-7384
mies	-7385
asers	-7386
steps	-7387
▁peas	-7388
▁rescu	-7389
▁wisely	-7390
▁twisting	-7391
▁permitted	-7392
▁heartbroken	-7393
▁conversation	-7394
iens	-7395
▁swo	-7396
ooking	-7397
▁buddy	-7398
▁aliens	-7399
▁crowns	-7400
▁spills	-7401
▁tidied	-7402
▁changes	-7403
▁belongings	-7404
▁classmates	-7405
▁Pu	-7406
crow	-7407
dding	-7408
▁Robo	-7409
▁bits	-7410
▁darl	-7411
ugging	-7412
▁awoke	-7413
▁refuse	-7414
▁wealth	-7415
▁swollen	-7416
▁crystals	-7417
▁darlings	-7418
▁explains	-7419
▁guessing	-7420
▁teachers	-7421
▁whistles	-7422
▁footsteps	-7423
▁reassured	-7424
▁masterpiece	-7425
rie	-7426
wise	-7427
▁aim	-7428
▁tar	-7429
▁Katy	-7430
▁Lina	-7431
▁decl	-7432
▁vegg	-7433
perate	-7434
▁Jonny	-7435
œPlease	-7436
▁peeled	-7437
▁Frankie	-7438
▁Outside	-7439
▁prayers	-7440
▁student	-7441
▁insisting	-7442
▁Sk	-7443
Take	-7444
ammy	-7445
aven	-7446
▁Mae	-7447
▁dot	-7448
▁rin	-7449
mered	-7450
▁germ	-7451
▁Bubba	-7452
▁nasty	-7453
▁scent	-7454
▁vines	-7455
▁figures	-7456
▁nibbled	-7457
▁speeding	-7458
▁bracelets	-7459
▁sill	-7460
▁vibr	-7461
▁spies	-7462
▁Seeing	-7463
▁nibble	-7464
▁encount	-7465
▁flipped	-7466
▁solving	-7467
▁toolbox	-7468
▁seagulls	-7469
▁troubles	-7470
aa	-7471
whe	-7472
rest	-7473
▁Elsa	-7474
▁emer	-7475
▁form	-7476
▁Other	-7477
▁Tiger	-7478
Alright	-7479
▁chilly	-7480
▁stored	-7481
▁target	-7482
▁toward	-7483
▁untied	-7484
▁artwork	-7485
▁treated	-7486
▁business	-7487
▁comforting	-7488
▁beautifully	-7489
aby	-7490
chy	-7491
lor	-7492
sol	-7493
ider	-7494
order	-7495
▁afar	-7496
▁exch	-7497
▁Paula	-7498
▁taped	-7499
▁survive	-7500
▁birdhouse	-7501
▁exercises	-7502
▁congratulated	-7503
▁granddaughter	-7504
▁unfortunately	-7505
idey	-7506
what	-7507
▁Win	-7508
Little	-7509
▁Flora	-7510
▁aware	-7511
▁marve	-7512
▁posit	-7513
▁banged	-7514
▁simply	-7515
▁delayed	-7516
▁honking	-7517
▁servant	-7518
▁statues	-7519
▁veggies	-7520
Goodnight	-7521
▁inspired	-7522
▁mosquitoes	-7523
Boys	-7524
▁Lion	-7525
▁rats	-7526
▁Rufus	-7527
▁force	-7528
▁kings	-7529
▁sweaty	-7530
five	-7531
▁Liam	-7532
▁Ping	-7533
▁Rudy	-7534
Always	-7535
ighing	-7536
▁trans	-7537
▁Spidey	-7538
▁gazing	-7539
▁wounds	-7540
▁turtles	-7541
▁Startled	-7542
▁activity	-7543
▁squished	-7544
▁thanking	-7545
sm	-7546
pen	-7547
ecca	-7548
gain	-7549
▁Spe	-7550
▁rely	-7551
▁Roger	-7552
▁loses	-7553
▁untie	-7554
▁manners	-7555
▁tapping	-7556
▁apologised	-7557
Cl	-7558
we	-7559
▁Se	-7560
ipes	-7561
▁dep	-7562
▁spy	-7563
elvet	-7564
▁toss	-7565
▁foxes	-7566
▁joins	-7567
▁scram	-7568
▁sweep	-7569
▁beeped	-7570
▁labels	-7571
▁emerged	-7572
▁smashed	-7573
▁scurrying	-7574
œThe	-7575
onnie	-7576
orter	-7577
▁Dory	-7578
▁curl	-7579
▁jars	-7580
▁Tessa	-7581
▁flaps	-7582
▁oppos	-7583
▁bitten	-7584
▁convin	-7585
▁ghosts	-7586
▁pandas	-7587
▁shrunk	-7588
▁twenty	-7589
▁warmly	-7590
▁concert	-7591
▁pleaded	-7592
▁purpose	-7593
▁correctly	-7594
▁presented	-7595
ivia	-7596
▁Alf	-7597
▁hen	-7598
▁Ever	-7599
▁sped	-7600
ummies	-7601
▁aisle	-7602
▁squaw	-7603
▁stall	-7604
▁tires	-7605
▁Ginger	-7606
▁Freddie	-7607
▁anticip	-7608
▁swaying	-7609
▁dressing	-7610
▁wrinkled	-7611
▁magazines	-7612
▁encouragement	-7613
elie	-7614
▁Dog	-7615
▁Zee	-7616
▁bea	-7617
▁jud	-7618
ortun	-7619
▁Nora	-7620
▁Becky	-7621
▁nests	-7622
▁prick	-7623
▁rowed	-7624
▁Velvet	-7625
▁transf	-7626
▁nearest	-7627
▁opportun	-7628
▁trusting	-7629
▁glittering	-7630
ats	-7631
▁Cara	-7632
▁Step	-7633
▁ramp	-7634
▁type	-7635
▁Brian	-7636
▁Terry	-7637
▁inter	-7638
▁otters	-7639
▁wiggly	-7640
▁cleared	-7641
▁nuzzled	-7642
▁pedaled	-7643
▁picnics	-7644
▁tasting	-7645
▁opposite	-7646
▁rescuing	-7647
œA	-7648
▁Sw	-7649
ddie	-7650
roll	-7651
œHey	-7652
▁loc	-7653
▁sav	-7654
Every	-7655
Leave	-7656
▁adds	-7657
▁gall	-7658
▁blond	-7659
▁girlâ	-7660
▁Spring	-7661
▁cocoon	-7662
▁swayed	-7663
▁swimmer	-7664
▁covering	-7665
▁declared	-7666
▁uniforms	-7667
▁displayed	-7668
▁scarecrow	-7669
▁shimmering	-7670
▁windowsill	-7671
▁anticipation	-7672
mo	-7673
its	-7674
amma	-7675
rily	-7676
ators	-7677
▁Hope	-7678
▁Jojo	-7679
father	-7680
idence	-7681
screen	-7682
▁dodged	-7683
▁visits	-7684
▁lipstick	-7685
▁designing	-7686
acy	-7687
▁Sl	-7688
▁hoo	-7689
▁Elle	-7690
▁disc	-7691
▁ends	-7692
▁purrs	-7693
▁Shelly	-7694
▁sadder	-7695
▁beating	-7696
▁attacked	-7697
▁doorbell	-7698
▁collapsed	-7699
▁scrambled	-7700
▁discoveries	-7701
▁forgiveness	-7702
munk	-7703
▁Man	-7704
manda	-7705
▁Gret	-7706
▁Poor	-7707
▁Sand	-7708
▁Time	-7709
▁peep	-7710
▁snug	-7711
illiam	-7712
▁flick	-7713
▁flips	-7714
▁joked	-7715
▁cracks	-7716
▁images	-7717
▁sheets	-7718
▁manager	-7719
▁routine	-7720
▁tumbled	-7721
▁tummies	-7722
▁backpacks	-7723
▁decoration	-7724
Fl	-7725
pit	-7726
▁Fort	-7727
▁Ruth	-7728
▁swap	-7729
▁whoo	-7730
romise	-7731
▁Eddie	-7732
▁Nancy	-7733
▁icing	-7734
▁Amanda	-7735
▁Monkey	-7736
▁failed	-7737
▁sprout	-7738
ordinary	-7739
▁Welcome	-7740
▁bathing	-7741
▁sunscreen	-7742
▁generosity	-7743
▁toothbrush	-7744
▁experienced	-7745
Dear	-7746
usty	-7747
▁Luc	-7748
▁yum	-7749
water	-7750
▁JoJo	-7751
▁beeh	-7752
▁grat	-7753
▁ting	-7754
▁Crabby	-7755
▁Olivia	-7756
▁obeyed	-7757
▁goodies	-7758
▁singers	-7759
▁encountered	-7760
So	-7761
da	-7762
aus	-7763
empt	-7764
▁Pin	-7765
▁Wil	-7766
ative	-7767
▁conv	-7768
▁lapt	-7769
▁sens	-7770
boards	-7771
▁badger	-7772
▁heaven	-7773
▁William	-7774
▁nodding	-7775
▁sternly	-7776
▁customer	-7777
▁dripping	-7778
▁gratitude	-7779
▁admiration	-7780
▁astronauts	-7781
▁Fortunately	-7782
uel	-7783
▁amu	-7784
ument	-7785
▁Phil	-7786
▁minds	-7787
▁shall	-7788
▁snaps	-7789
ilities	-7790
▁crawls	-7791
▁inches	-7792
▁slowed	-7793
▁Melissa	-7794
▁attempt	-7795
▁convince	-7796
▁brightest	-7797
▁grandfather	-7798
erk	-7799
elle	-7800
lied	-7801
œSee	-7802
▁Beh	-7803
▁Flo	-7804
ddles	-7805
▁Alan	-7806
▁Youâ	-7807
▁Jason	-7808
▁blown	-7809
▁meows	-7810
▁robin	-7811
▁Bounce	-7812
▁floats	-7813
▁Jonathan	-7814
▁chipmunk	-7815
▁scooters	-7816
▁visitors	-7817
▁applauding	-7818
▁extraordinary	-7819
cie	-7820
lph	-7821
udo	-7822
ulp	-7823
▁Min	-7824
ances	-7825
▁diso	-7826
▁flip	-7827
▁stew	-7828
udolph	-7829
▁Gabby	-7830
▁films	-7831
▁fires	-7832
▁matey	-7833
▁sculp	-7834
▁soapy	-7835
▁explor	-7836
▁laptop	-7837
▁orders	-7838
▁parted	-7839
▁flashed	-7840
▁lowered	-7841
▁million	-7842
▁checkout	-7843
▁grandson	-7844
▁recorder	-7845
▁umbrellas	-7846
bee	-7847
▁Say	-7848
œGood	-7849
▁priz	-7850
▁shin	-7851
▁germs	-7852
▁goats	-7853
▁Taking	-7854
▁member	-7855
▁scolds	-7856
▁breaths	-7857
▁drowned	-7858
▁meowing	-7859
▁reminds	-7860
▁tidying	-7861
▁diamonds	-7862
lyn	-7863
Bang	-7864
▁Pen	-7865
▁Sir	-7866
angle	-7867
ctric	-7868
▁fond	-7869
▁teams	-7870
▁Speedy	-7871
▁beaming	-7872
▁bounces	-7873
▁conduct	-7874
▁shorter	-7875
▁applause	-7876
▁munching	-7877
▁quacking	-7878
▁switched	-7879
▁responded	-7880
▁instrument	-7881
▁scratching	-7882
Too	-7883
str	-7884
▁Fel	-7885
▁clerk	-7886
▁forts	-7887
▁groan	-7888
▁unwra	-7889
▁Joanna	-7890
▁Rudolph	-7891
▁clicked	-7892
▁connect	-7893
▁weapons	-7894
▁steering	-7895
▁supplied	-7896
▁tentacles	-7897
▁increasing	-7898
▁questioned	-7899
rink	-7900
▁que	-7901
belle	-7902
▁Hold	-7903
▁cons	-7904
▁sets	-7905
▁cares	-7906
▁dears	-7907
▁scrub	-7908
▁Behind	-7909
▁carries	-7910
▁bothered	-7911
▁flashing	-7912
▁rumbling	-7913
▁terrified	-7914
▁characters	-7915
Arrr	-7916
anie	-7917
▁fif	-7918
storm	-7919
œSure	-7920
▁Duck	-7921
▁scri	-7922
▁zooms	-7923
▁tilted	-7924
▁cheated	-7925
▁petting	-7926
▁realizes	-7927
▁conductor	-7928
off	-7929
aint	-7930
▁Dra	-7931
▁Moo	-7932
▁hood	-7933
▁unlo	-7934
▁Chick	-7935
▁Lenny	-7936
▁Right	-7937
▁awful	-7938
▁beaver	-7939
▁floors	-7940
▁microw	-7941
chievous	-7942
▁forgives	-7943
▁knocking	-7944
▁convinced	-7945
▁prevented	-7946
▁confidence	-7947
▁mischievous	-7948
uno	-7949
centr	-7950
▁soot	-7951
▁Claus	-7952
▁Eliza	-7953
▁Tyler	-7954
▁court	-7955
▁flock	-7956
▁haven	-7957
idnight	-7958
▁Bobbie	-7959
▁models	-7960
ironment	-7961
▁beehive	-7962
▁concentr	-7963
▁electric	-7964
▁offering	-7965
▁conquered	-7966
▁microwave	-7967
▁movements	-7968
▁environment	-7969
Mr	-7970
On	-7971
lt	-7972
All	-7973
ouqu	-7974
ship	-7975
œWho	-7976
▁Bang	-7977
▁Gary	-7978
▁tops	-7979
▁bouqu	-7980
▁seals	-7981
▁queens	-7982
▁shorts	-7983
▁strips	-7984
▁twists	-7985
▁washes	-7986
▁Twinkle	-7987
▁hardest	-7988
▁hunters	-7989
▁robbers	-7990
▁testing	-7991
▁sprinkle	-7992
▁stretches	-7993
▁destroying	-7994
now	-7995
Choo	-7996
Nice	-7997
Stay	-7998
▁ket	-7999
udged	-8000
▁deed	-8001
▁puck	-8002
▁tips	-8003
▁waded	-8004
▁common	-8005
▁sirens	-8006
▁Matilda	-8007
▁signing	-8008
▁paddling	-8009
▁youngest	-8010
▁container	-8011
▁envelopes	-8012
▁expecting	-8013
▁Gus	-8014
▁Peep	-8015
▁Stri	-8016
▁jobs	-8017
▁Again	-8018
▁strum	-8019
▁checks	-8020
▁expert	-8021
▁gallop	-8022
▁stamped	-8023
▁tickling	-8024
▁announced	-8025
▁observing	-8026
▁sculpture	-8027
▁disappoint	-8028
▁Ly	-8029
Letâ	-8030
lest	-8031
ooks	-8032
Molly	-8033
rough	-8034
elieve	-8035
▁Gemma	-8036
▁messes	-8037
▁stroke	-8038
▁Another	-8039
▁winding	-8040
▁argument	-8041
▁mattered	-8042
▁Annabelle	-8043
▁unpacking	-8044
bu	-8045
lers	-8046
otte	-8047
▁Har	-8048
Billy	-8049
▁Nell	-8050
▁teap	-8051
arable	-8052
earing	-8053
▁Ready	-8054
▁Vroom	-8055
▁whisk	-8056
▁combed	-8057
▁shrank	-8058
▁Looking	-8059
▁clearly	-8060
▁cowboys	-8061
▁raising	-8062
▁tearing	-8063
▁grumbled	-8064
▁Charlotte	-8065
ware	-8066
▁tin	-8067
eople	-8068
▁Hank	-8069
▁Nice	-8070
▁Elsie	-8071
▁bride	-8072
flowers	-8073
▁Gracie	-8074
▁Martin	-8075
▁Sandra	-8076
▁compan	-8077
▁storms	-8078
▁surely	-8079
▁bouquet	-8080
▁buckled	-8081
▁cupcake	-8082
▁outfits	-8083
▁soundly	-8084
▁exploded	-8085
▁dragonfly	-8086
▁Immediately	-8087
▁experiences	-8088
▁exploration	-8089
▁De	-8090
Kids	-8091
otch	-8092
ended	-8093
▁Pick	-8094
œMaybe	-8095
▁salon	-8096
▁smelt	-8097
▁tests	-8098
▁nights	-8099
▁gardens	-8100
▁sincere	-8101
▁vibrant	-8102
▁relaxing	-8103
▁squeezes	-8104
▁imaginary	-8105
▁responsibility	-8106
oor	-8107
▁''	-8108
▁hu	-8109
airy	-8110
ethos	-8111
▁Foxy	-8112
▁Muff	-8113
▁moat	-8114
▁self	-8115
▁zips	-8116
idents	-8117
▁Mamma	-8118
▁burnt	-8119
Someone	-8120
ittered	-8121
▁Auntie	-8122
▁active	-8123
▁pizzas	-8124
▁sprays	-8125
▁teapot	-8126
ccidents	-8127
▁Whoever	-8128
▁disobey	-8129
▁leaking	-8130
▁possess	-8131
▁stethos	-8132
▁whoever	-8133
▁Midnight	-8134
▁checking	-8135
▁haircuts	-8136
▁behaviour	-8137
▁explaining	-8138
▁temptation	-8139
val	-8140
œOk	-8141
abra	-8142
bank	-8143
free	-8144
uggy	-8145
▁Bad	-8146
▁Ber	-8147
▁ill	-8148
anced	-8149
balls	-8150
▁Liza	-8151
▁papa	-8152
ippers	-8153
▁Bruno	-8154
▁Sleep	-8155
▁quilt	-8156
▁snowy	-8157
▁peeped	-8158
▁traded	-8159
▁mommies	-8160
▁squeaky	-8161
▁swallow	-8162
▁occasion	-8163
▁overhead	-8164
▁pressing	-8165
▁companion	-8166
▁instantly	-8167
▁glimmering	-8168
yl	-8169
▁bond	-8170
▁cubs	-8171
▁rows	-8172
▁Finny	-8173
▁Grand	-8174
▁Riley	-8175
▁faith	-8176
▁burger	-8177
▁killed	-8178
▁cheaper	-8179
▁puppets	-8180
▁rewards	-8181
▁communic	-8182
▁wriggled	-8183
▁languages	-8184
▁crocodiles	-8185
▁expression	-8186
▁stethoscope	-8187
Jim	-8188
▁Isn	-8189
▁kit	-8190
igger	-8191
▁ouch	-8192
Fluffy	-8193
▁Allie	-8194
▁Tammy	-8195
▁erase	-8196
▁insep	-8197
▁poses	-8198
▁Bonnie	-8199
▁waters	-8200
▁hunting	-8201
▁sandpit	-8202
▁trigger	-8203
▁inseparable	-8204
▁particularly	-8205
€¦	-8206
ita	-8207
▁Er	-8208
pril	-8209
▁Yum	-8210
▁Dino	-8211
▁chin	-8212
▁jugg	-8213
▁Trust	-8214
▁natur	-8215
▁playd	-8216
▁awhile	-8217
▁popsic	-8218
▁defeated	-8219
▁opinions	-8220
▁sometime	-8221
▁providing	-8222
▁opportunity	-8223
lo	-8224
jack	-8225
▁hab	-8226
Quack	-8227
venir	-8228
▁Mila	-8229
▁Ravi	-8230
▁Show	-8231
▁prod	-8232
▁Rocky	-8233
▁crops	-8234
▁types	-8235
▁calmer	-8236
▁cleans	-8237
▁upside	-8238
▁closing	-8239
▁flowing	-8240
▁plugged	-8241
▁souvenir	-8242
▁textures	-8243
▁meatballs	-8244
An	-8245
omb	-8246
▁clut	-8247
▁funn	-8248
▁April	-8249
▁burns	-8250
▁chill	-8251
▁locks	-8252
▁momma	-8253
▁pouch	-8254
▁thump	-8255
▁Muffin	-8256
▁Oliver	-8257
▁brains	-8258
▁glided	-8259
▁hotter	-8260
▁napped	-8261
▁grassho	-8262
▁hangers	-8263
▁annoying	-8264
▁squinted	-8265
▁preschool	-8266
▁shattered	-8267
▁cheerfully	-8268
▁fascinating	-8269
ana	-8270
emy	-8271
œBe	-8272
▁Ky	-8273
Hold	-8274
▁Pet	-8275
▁odd	-8276
Sally	-8277
▁Does	-8278
▁born	-8279
▁gulp	-8280
▁rebu	-8281
▁Carla	-8282
▁cheat	-8283
▁dryer	-8284
▁gasps	-8285
▁whatâ	-8286
▁Summer	-8287
▁prickly	-8288
▁visitor	-8289
▁wildflowers	-8290
py	-8291
His	-8292
Put	-8293
anda	-8294
aron	-8295
jest	-8296
▁Off	-8297
amboo	-8298
▁Doug	-8299
▁Jasm	-8300
▁bund	-8301
▁plug	-8302
▁thie	-8303
▁Never	-8304
▁Share	-8305
▁bound	-8306
▁enemy	-8307
▁local	-8308
▁roast	-8309
▁skies	-8310
▁wiser	-8311
▁amused	-8312
▁dollar	-8313
▁hisses	-8314
▁melody	-8315
▁pantry	-8316
▁swirls	-8317
▁Stanley	-8318
▁bruises	-8319
▁smoking	-8320
▁messages	-8321
▁stuffing	-8322
▁returning	-8323
In	-8324
gr	-8325
vy	-8326
▁Pl	-8327
▁Bra	-8328
eline	-8329
getic	-8330
▁Mona	-8331
▁cops	-8332
▁hiss	-8333
▁momâ	-8334
▁unco	-8335
shadow	-8336
▁pleas	-8337
▁bubbly	-8338
▁Chickie	-8339
▁becomes	-8340
▁bubbling	-8341
▁riverbank	-8342
▁5	-8343
mel	-8344
▁Ar	-8345
Ahoy	-8346
▁caw	-8347
elope	-8348
iving	-8349
▁Jose	-8350
▁Pink	-8351
▁yumm	-8352
ending	-8353
▁backs	-8354
▁treas	-8355
▁whimp	-8356
ouraged	-8357
▁Prince	-8358
▁invent	-8359
▁passes	-8360
▁shines	-8361
▁unable	-8362
▁whales	-8363
▁engines	-8364
▁natural	-8365
▁shallow	-8366
▁sweeter	-8367
▁finishes	-8368
▁freezing	-8369
▁answering	-8370
▁healthier	-8371
▁mysteries	-8372
▁traveling	-8373
▁lumberjack	-8374
',	-8375
ige	-8376
Jill	-8377
amil	-8378
aret	-8379
▁Tre	-8380
▁tot	-8381
stand	-8382
▁Ouch	-8383
▁Rich	-8384
▁scow	-8385
orking	-8386
▁Super	-8387
amiliar	-8388
▁creams	-8389
▁sprang	-8390
▁whined	-8391
▁Playing	-8392
▁Quickly	-8393
▁chatted	-8394
▁watermel	-8395
▁pepperoni	-8396
▁Thankfully	-8397
▁unfamiliar	-8398
▁grasshopper	-8399
▁Oh	-8400
▁Pa	-8401
belt	-8402
whel	-8403
▁lar	-8404
▁mac	-8405
acock	-8406
anted	-8407
▁Choo	-8408
▁Donâ	-8409
▁lump	-8410
▁rack	-8411
▁Ricky	-8412
▁Sweet	-8413
▁actor	-8414
▁prank	-8415
▁earned	-8416
▁scares	-8417
▁sipped	-8418
▁Jasmine	-8419
▁coolest	-8420
▁farmers	-8421
▁honesty	-8422
▁invites	-8423
▁munched	-8424
▁serving	-8425
▁cuddling	-8426
▁aeroplanes	-8427
Hmm	-8428
▁doz	-8429
▁bomb	-8430
▁Surpr	-8431
▁honks	-8432
▁necks	-8433
▁bamboo	-8434
▁miller	-8435
▁weighs	-8436
▁apology	-8437
▁details	-8438
▁overwhel	-8439
▁seatbelt	-8440
▁spilling	-8441
▁airplanes	-8442
▁computers	-8443
▁moonlight	-8444
▁repairman	-8445
▁compliment	-8446
▁magnifying	-8447
▁reappeared	-8448
For	-8449
Soon	-8450
asha	-8451
▁bas	-8452
▁cris	-8453
▁drip	-8454
shaped	-8455
▁Jilly	-8456
▁Kathy	-8457
▁Piggy	-8458
faction	-8459
▁dashed	-8460
▁prizes	-8461
▁Through	-8462
▁biscuit	-8463
▁compete	-8464
▁thieves	-8465
▁Snowball	-8466
▁pinching	-8467
▁treasured	-8468
▁experiment	-8469
▁satisfaction	-8470
▁successfully	-8471
Tw	-8472
Any	-8473
Che	-8474
▁Ed	-8475
ints	-8476
▁Gre	-8477
▁lim	-8478
ormed	-8479
▁Rosa	-8480
▁canv	-8481
▁Johny	-8482
▁camel	-8483
▁examp	-8484
▁sandy	-8485
immered	-8486
▁Birdie	-8487
▁donkey	-8488
▁raking	-8489
▁chatting	-8490
▁snapping	-8491
▁Accidents	-8492
▁whimpered	-8493
▁springtime	-8494
oc	-8495
▁4	-8496
ogo	-8497
sie	-8498
▁Of	-8499
▁Wo	-8500
chup	-8501
uess	-8502
▁goo	-8503
Never	-8504
▁Zack	-8505
▁boil	-8506
▁ener	-8507
▁hike	-8508
▁jets	-8509
ouched	-8510
▁cages	-8511
▁pills	-8512
▁traps	-8513
▁Hootie	-8514
▁judges	-8515
▁lasers	-8516
▁croaked	-8517
▁longest	-8518
▁miracle	-8519
▁snorted	-8520
▁approach	-8521
▁cheating	-8522
▁positive	-8523
▁energetic	-8524
▁glittered	-8525
▁alligators	-8526
▁situations	-8527
▁watermelon	-8528
cad	-8529
Once	-8530
over	-8531
rick	-8532
rupt	-8533
▁dou	-8534
ashes	-8535
▁Girl	-8536
▁Jody	-8537
▁Very	-8538
▁dart	-8539
▁topp	-8540
▁Belle	-8541
▁Sasha	-8542
cadabra	-8543
▁Steven	-8544
▁arrest	-8545
▁knives	-8546
▁shares	-8547
▁ability	-8548
▁example	-8549
▁ketchup	-8550
▁meaning	-8551
▁rebuild	-8552
▁attitude	-8553
▁practised	-8554
▁protection	-8555
Em	-8556
eep	-8557
gar	-8558
œYay	-8559
First	-8560
▁Jenn	-8561
▁bends	-8562
▁moons	-8563
▁pipes	-8564
▁shoel	-8565
▁canvas	-8566
▁levers	-8567
▁medals	-8568
▁shrugs	-8569
▁thrill	-8570
▁trusts	-8571
▁wolves	-8572
▁groaned	-8573
▁pounced	-8574
▁repeats	-8575
▁bluebird	-8576
▁weighing	-8577
▁demanding	-8578
▁swimsuits	-8579
▁discouraged	-8580
▁embarrassing	-8581
Ab	-8582
!'.	-8583
Deal	-8584
iter	-8585
nces	-8586
ering	-8587
▁digs	-8588
▁rips	-8589
▁swat	-8590
scotch	-8591
▁Amber	-8592
▁vests	-8593
adually	-8594
▁hummed	-8595
▁styles	-8596
▁thicker	-8597
▁Penelope	-8598
▁chopping	-8599
▁compared	-8600
▁goodness	-8601
▁joyfully	-8602
▁wiggling	-8603
▁rewarding	-8604
▁distracted	-8605
HE	-8606
ai	-8607
▁baa	-8608
Sarah	-8609
emies	-8610
onest	-8611
rench	-8612
▁Over	-8613
▁ding	-8614
▁foam	-8615
▁slee	-8616
▁Tears	-8617
▁hoses	-8618
▁Joanne	-8619
▁Pinchy	-8620
▁blonde	-8621
▁enemies	-8622
▁meadows	-8623
▁popping	-8624
▁deserved	-8625
▁guarding	-8626
▁slithered	-8627
▁newspapers	-8628
▁supporting	-8629
▁communicate	-8630
▁caterpillars	-8631
ole	-8632
Jane	-8633
well	-8634
▁bud	-8635
▁dev	-8636
▁nic	-8637
▁Care	-8638
▁Lots	-8639
▁fade	-8640
▁lull	-8641
iciest	-8642
▁Hurry	-8643
▁Josie	-8644
▁blade	-8645
▁costs	-8646
▁faint	-8647
▁pecks	-8648
▁facing	-8649
▁recess	-8650
▁injured	-8651
▁sweetly	-8652
▁luckiest	-8653
▁sweaters	-8654
▁teamwork	-8655
▁enjoyable	-8656
▁scattering	-8657
▁underwater	-8658
▁differently	-8659
ani	-8660
oss	-8661
ris	-8662
wen	-8663
ibly	-8664
▁Fly	-8665
iolet	-8666
▁Eric	-8667
▁cafe	-8668
▁obst	-8669
▁peak	-8670
▁stur	-8671
inging	-8672
▁Carol	-8673
▁daily	-8674
▁embra	-8675
▁hooks	-8676
lephant	-8677
▁nicest	-8678
▁pounds	-8679
▁skirts	-8680
▁sleeps	-8681
▁thumbs	-8682
▁Sparkle	-8683
▁coughed	-8684
▁talents	-8685
▁whipped	-8686
▁noticing	-8687
▁certainly	-8688
▁fireflies	-8689
Keep	-8690
iana	-8691
lish	-8692
▁Boo	-8693
▁Con	-8694
▁Reb	-8695
▁wig	-8696
isdom	-8697
otion	-8698
▁arom	-8699
▁bats	-8700
▁Magic	-8701
▁dolly	-8702
▁fishy	-8703
▁groom	-8704
▁hoops	-8705
▁month	-8706
▁worst	-8707
▁bowing	-8708
▁formed	-8709
▁shoots	-8710
▁Rebecca	-8711
▁angrily	-8712
▁benches	-8713
▁purring	-8714
▁reflect	-8715
▁tugging	-8716
▁slapping	-8717
▁smartest	-8718
▁poisonous	-8719
▁welcoming	-8720
Tr	-8721
Joe	-8722
orse	-8723
▁cuc	-8724
Which	-8725
ounce	-8726
solut	-8727
▁Deal	-8728
▁Gwen	-8729
▁ripp	-8730
icious	-8731
▁curre	-8732
▁gates	-8733
▁gummy	-8734
▁blades	-8735
▁larger	-8736
▁blushed	-8737
▁burgers	-8738
▁hissing	-8739
▁marking	-8740
▁peacock	-8741
▁wrapper	-8742
▁bicycles	-8743
▁doorstep	-8744
▁kayaking	-8745
▁silently	-8746
▁overwhelmed	-8747
rob	-8748
oard	-8749
▁Woo	-8750
▁ank	-8751
▁exh	-8752
▁Skip	-8753
▁icky	-8754
▁lava	-8755
Danger	-8756
▁Greta	-8757
▁Hello	-8758
▁pokes	-8759
▁tunes	-8760
▁Albert	-8761
▁Butter	-8762
▁aboard	-8763
▁whoosh	-8764
▁cherish	-8765
▁flashes	-8766
▁harvest	-8767
▁lizards	-8768
▁loyalty	-8769
▁scenery	-8770
▁strokes	-8771
▁intently	-8772
▁marveled	-8773
▁mustered	-8774
▁playdate	-8775
▁hopscotch	-8776
▁improving	-8777
Bl	-8778
œS	-8779
▁Sa	-8780
▁Ye	-8781
edic	-8782
nded	-8783
▁Ant	-8784
▁Sal	-8785
▁THE	-8786
▁Yog	-8787
Honey	-8788
▁Fish	-8789
▁Wigg	-8790
▁claw	-8791
▁mugs	-8792
▁owns	-8793
▁Jackâ	-8794
▁Light	-8795
▁aroma	-8796
▁chews	-8797
▁facts	-8798
▁shave	-8799
▁stirs	-8800
▁Bouncy	-8801
▁Minnie	-8802
▁desper	-8803
▁messed	-8804
▁crowded	-8805
▁glisten	-8806
▁sneezes	-8807
▁tickles	-8808
▁vinegar	-8809
▁crouched	-8810
▁exchange	-8811
▁hesitation	-8812
▁transformed	-8813
▁intelligence	-8814
▁Ho	-8815
▁La	-8816
Only	-8817
mbur	-8818
rice	-8819
œWeâ	-8820
Hurry	-8821
aming	-8822
andel	-8823
▁Life	-8824
▁ruff	-8825
barrow	-8826
▁Avery	-8827
▁Fairy	-8828
▁Which	-8829
▁beast	-8830
▁heels	-8831
▁racer	-8832
▁rinse	-8833
▁Andrew	-8834
▁defeat	-8835
▁drying	-8836
▁hambur	-8837
▁hooves	-8838
▁jogger	-8839
▁scoops	-8840
▁cousins	-8841
▁Tomorrow	-8842
▁kneeling	-8843
▁playhouse	-8844
▁revealing	-8845
▁wheelbarrow	-8846
che	-8847
ili	-8848
ker	-8849
ders	-8850
irty	-8851
izza	-8852
▁lil	-8853
iring	-8854
▁Leah	-8855
▁bold	-8856
▁whir	-8857
▁alley	-8858
▁cells	-8859
▁erupt	-8860
▁level	-8861
speople	-8862
▁Jennie	-8863
▁Orange	-8864
▁guards	-8865
▁hippos	-8866
▁runner	-8867
▁stores	-8868
▁unless	-8869
▁beetles	-8870
▁cracker	-8871
▁landing	-8872
▁allowing	-8873
▁crickets	-8874
▁pleasant	-8875
▁strolled	-8876
▁alongside	-8877
▁magically	-8878
▁unwrapped	-8879
▁electricity	-8880
▁townspeople	-8881
▁disappointment	-8882
cri	-8883
rum	-8884
▁Ne	-8885
▁weâ	-8886
gress	-8887
▁Moon	-8888
▁Pear	-8889
▁Toni	-8890
▁tant	-8891
aitlyn	-8892
cycles	-8893
uction	-8894
▁Bruce	-8895
▁Colin	-8896
▁Years	-8897
▁scene	-8898
▁whirl	-8899
colored	-8900
▁allerg	-8901
▁majest	-8902
▁minded	-8903
▁pilots	-8904
▁scores	-8905
▁spears	-8906
▁stains	-8907
▁unfair	-8908
▁Patrick	-8909
▁shinier	-8910
▁tongues	-8911
▁yawning	-8912
▁Caroline	-8913
▁Sparkles	-8914
▁choosing	-8915
▁movement	-8916
▁stepping	-8917
▁disappearing	-8918
bbi	-8919
Open	-8920
hole	-8921
just	-8922
site	-8923
▁Ken	-8924
▁Per	-8925
▁Sid	-8926
alled	-8927
chief	-8928
▁acts	-8929
▁Steph	-8930
▁ankle	-8931
▁boards	-8932
▁footpr	-8933
▁waking	-8934
▁banging	-8935
▁boiling	-8936
▁bumping	-8937
▁circled	-8938
▁tantrum	-8939
▁trading	-8940
▁Sunshine	-8941
▁soothing	-8942
▁allowance	-8943
▁countries	-8944
▁sensation	-8945
▁shoelaces	-8946
▁foreshadow	-8947
oto	-8948
ugs	-8949
Does	-8950
beep	-8951
cell	-8952
umed	-8953
▁Day	-8954
▁Was	-8955
▁roo	-8956
oured	-8957
▁Chew	-8958
▁Gogo	-8959
▁soda	-8960
▁Libby	-8961
▁aston	-8962
▁cluck	-8963
▁globe	-8964
▁habit	-8965
▁groups	-8966
▁warmed	-8967
ormation	-8968
solutely	-8969
▁Johnnie	-8970
▁Kaitlyn	-8971
▁consider	-8972
▁property	-8973
▁kangaroos	-8974
▁challenged	-8975
▁performers	-8976
▁thunderstorm	-8977
bed	-8978
how	-8979
aste	-8980
gets	-8981
isie	-8982
tled	-8983
œHow	-8984
▁Weâ	-8985
Tweet	-8986
▁Brad	-8987
▁Rory	-8988
▁bait	-8989
▁fist	-8990
▁Felix	-8991
▁Pingo	-8992
▁bloss	-8993
▁exhib	-8994
▁leans	-8995
▁whine	-8996
▁Dragon	-8997
▁comets	-8998
▁quacks	-8999
▁riddle	-9000
▁sturdy	-9001
▁Sitting	-9002
▁chooses	-9003
▁current	-9004
▁hamster	-9005
▁lookout	-9006
▁section	-9007
▁hundreds	-9008
▁cooperate	-9009
▁lunchtime	-9010
▁musicians	-9011
▁appearance	-9012
,'	-9013
Baa	-9014
ial	-9015
seed	-9016
▁Ice	-9017
▁Kai	-9018
▁Rat	-9019
▁Tra	-9020
illas	-9021
▁Cook	-9022
▁Past	-9023
▁Wait	-9024
▁lush	-9025
▁tale	-9026
Friend	-9027
sitter	-9028
▁Buggy	-9029
▁Clare	-9030
▁Janet	-9031
▁Rusty	-9032
▁Smoke	-9033
▁bushy	-9034
▁sleds	-9035
▁Maisie	-9036
▁Peanut	-9037
▁chains	-9038
▁oceans	-9039
▁sooner	-9040
▁sinking	-9041
▁tempted	-9042
▁ticking	-9043
▁birdseed	-9044
▁untangle	-9045
▁Carefully	-9046
▁interrupt	-9047
▁volcanoes	-9048
▁babysitter	-9049
▁exercising	-9050
▁glistening	-9051
epe	-9052
pan	-9053
uke	-9054
emon	-9055
inct	-9056
mark	-9057
reya	-9058
that	-9059
œAre	-9060
▁Ami	-9061
▁heâ	-9062
Benny	-9063
aling	-9064
ridge	-9065
▁Gold	-9066
▁Make	-9067
▁Rita	-9068
▁Snap	-9069
▁Woof	-9070
▁blur	-9071
▁Johnâ	-9072
▁Nurse	-9073
▁admit	-9074
▁binoc	-9075
▁birdy	-9076
▁champ	-9077
▁mayor	-9078
▁peels	-9079
keepers	-9080
▁copied	-9081
▁hollow	-9082
▁lilies	-9083
▁rowing	-9084
▁thirty	-9085
▁undone	-9086
▁angrier	-9087
▁harmony	-9088
▁huddled	-9089
▁patches	-9090
▁process	-9091
▁swapped	-9092
▁coughing	-9093
▁designer	-9094
▁gorillas	-9095
▁cupboards	-9096
▁otherwise	-9097
▁helicopters	-9098
▁invitations	-9099
▁motorcycles	-9100
▁imaginations	-9101
ulf	-9102
tern	-9103
agine	-9104
clock	-9105
hings	-9106
shirt	-9107
▁trim	-9108
fusion	-9109
icking	-9110
▁drill	-9111
▁hangs	-9112
▁horri	-9113
▁knobs	-9114
▁rocky	-9115
▁timid	-9116
▁torto	-9117
▁Melody	-9118
▁cloths	-9119
▁crafts	-9120
▁fights	-9121
▁floppy	-9122
▁fetched	-9123
▁hatched	-9124
▁lullaby	-9125
racadabra	-9126
▁attempts	-9127
▁juiciest	-9128
▁softened	-9129
▁confusion	-9130
▁unlocking	-9131
▁recommendation	-9132
ka	-9133
cat	-9134
▁Te	-9135
Zoom	-9136
elve	-9137
anish	-9138
ulars	-9139
under	-9140
▁Bark	-9141
▁Duke	-9142
▁till	-9143
endant	-9144
igaret	-9145
▁Candy	-9146
▁Could	-9147
▁Freya	-9148
▁piled	-9149
▁shyly	-9150
▁Nellie	-9151
▁Violet	-9152
▁detect	-9153
▁narrow	-9154
▁roamed	-9155
▁sleigh	-9156
▁trusty	-9157
▁beeping	-9158
▁bellies	-9159
▁builder	-9160
▁lawyers	-9161
▁mindful	-9162
▁nations	-9163
▁campsite	-9164
▁carefree	-9165
▁pedaling	-9166
▁spoiling	-9167
▁squirted	-9168
▁solutions	-9169
▁astonished	-9170
▁courageous	-9171
▁structures	-9172
▁desperately	-9173
▁peacefulness	-9174
hh	-9175
Amy	-9176
Try	-9177
ifi	-9178
▁Fa	-9179
▁Gl	-9180
Fire	-9181
appy	-9182
pect	-9183
rons	-9184
▁Dee	-9185
▁ric	-9186
field	-9187
▁Fifi	-9188
▁Gray	-9189
▁Toto	-9190
▁dock	-9191
▁ench	-9192
▁gogg	-9193
▁jing	-9194
▁maps	-9195
▁Catty	-9196
▁chili	-9197
▁dedic	-9198
▁spare	-9199
▁state	-9200
▁tanks	-9201
Grandpa	-9202
▁aprons	-9203
▁bathed	-9204
▁depart	-9205
▁writer	-9206
▁caution	-9207
▁condition	-9208
▁scrubbing	-9209
▁binoculars	-9210
▁compromise	-9211
▁achievement	-9212
Aw	-9213
sa	-9214
bel	-9215
œOK	-9216
atre	-9217
teen	-9218
▁Cro	-9219
▁Paw	-9220
▁Tay	-9221
rings	-9222
▁Bert	-9223
▁Cher	-9224
▁Greg	-9225
▁Park	-9226
▁echo	-9227
▁nets	-9228
▁yelp	-9229
aptain	-9230
▁Pearl	-9231
▁croak	-9232
▁lever	-9233
▁sacks	-9234
▁Hopper	-9235
▁cutter	-9236
▁glared	-9237
▁hunger	-9238
▁Flutter	-9239
▁capture	-9240
▁cigaret	-9241
▁goggles	-9242
▁theatre	-9243
▁stroller	-9244
▁tortoise	-9245
▁feathered	-9246
▁passenger	-9247
▁continuing	-9248
▁gratefully	-9249
ps	-9250
etah	-9251
aning	-9252
aroni	-9253
guard	-9254
ooray	-9255
uries	-9256
▁Math	-9257
▁Wolf	-9258
▁stun	-9259
▁susp	-9260
▁Books	-9261
▁Puppy	-9262
▁Ziggy	-9263
▁bulbs	-9264
▁clubs	-9265
▁parks	-9266
▁skips	-9267
▁Alfred	-9268
▁Alison	-9269
▁Wisdom	-9270
▁blamed	-9271
▁deeply	-9272
▁enjoys	-9273
▁phones	-9274
▁weaker	-9275
œWelcome	-9276
▁cheetah	-9277
▁loudest	-9278
▁pancake	-9279
▁sobbing	-9280
▁woodcut	-9281
▁allergic	-9282
▁porridge	-9283
▁Stephanie	-9284
▁contented	-9285
▁mustaches	-9286
▁scrunched	-9287
▁differences	-9288
▁frustration	-9289
ya	-9290
œP	-9291
ift	-9292
mie	-9293
▁CD	-9294
▁Cr	-9295
Jump	-9296
book	-9297
this	-9298
▁opt	-9299
▁Kyle	-9300
▁Oink	-9301
▁scut	-9302
▁Lucas	-9303
▁Using	-9304
▁Willy	-9305
▁Wooly	-9306
▁charm	-9307
▁tents	-9308
▁whizz	-9309
œThanks	-9310
▁auntie	-9311
▁brakes	-9312
▁carton	-9313
▁cooled	-9314
▁nearer	-9315
▁praise	-9316
▁stings	-9317
▁blessed	-9318
▁realise	-9319
▁seasons	-9320
▁Elephant	-9321
▁galloped	-9322
▁glittery	-9323
▁guardian	-9324
▁headache	-9325
▁instinct	-9326
▁seriously	-9327
▁absolutely	-9328
▁incredibly	-9329
▁nightmares	-9330
▁woodcutter	-9331
▁zookeepers	-9332
ann	-9333
hand	-9334
ifer	-9335
kind	-9336
oned	-9337
▁Dot	-9338
▁Wal	-9339
▁plo	-9340
Guess	-9341
Jimmy	-9342
ingly	-9343
▁Mack	-9344
▁carn	-9345
▁knit	-9346
▁pace	-9347
antern	-9348
elling	-9349
œThere	-9350
▁Jodie	-9351
▁aloud	-9352
▁fluff	-9353
▁hadnâ	-9354
▁mooed	-9355
▁royal	-9356
▁winds	-9357
▁woken	-9358
Anytime	-9359
▁dandel	-9360
▁doesnâ	-9361
▁floaty	-9362
▁mashed	-9363
▁stacks	-9364
▁trunks	-9365
▁twelve	-9366
▁Biscuit	-9367
▁disagre	-9368
▁warmest	-9369
▁Jennifer	-9370
▁earrings	-9371
▁smoothly	-9372
▁cherished	-9373
▁snowflake	-9374
▁sweetness	-9375
▁completing	-9376
▁footprints	-9377
Isn	-9378
▁Ms	-9379
▁Bar	-9380
▁Roo	-9381
▁nin	-9382
Sleep	-9383
cloth	-9384
▁Beep	-9385
▁Mine	-9386
▁Play	-9387
vering	-9388
▁Shark	-9389
▁desks	-9390
▁doves	-9391
▁fifty	-9392
▁fries	-9393
▁mushy	-9394
▁stalk	-9395
▁towns	-9396
Playing	-9397
▁Doctor	-9398
▁Patches	-9399
▁boarded	-9400
▁kissing	-9401
▁minding	-9402
▁rubbish	-9403
▁threads	-9404
▁Wherever	-9405
▁funniest	-9406
▁popsicle	-9407
▁presence	-9408
▁Instantly	-9409
▁Otherwise	-9410
▁community	-9411
▁ostriches	-9412
▁realizing	-9413
▁repairing	-9414
"!	-9415
of	-9416
Jen	-9417
aps	-9418
ics	-9419
ils	-9420
cker	-9421
▁Del	-9422
▁Smo	-9423
icent	-9424
isbee	-9425
▁Jere	-9426
▁Tree	-9427
▁Turt	-9428
▁army	-9429
▁date	-9430
▁isnâ	-9431
▁dozed	-9432
▁escap	-9433
▁foggy	-9434
▁purch	-9435
▁wanna	-9436
Nothing	-9437
▁Bernie	-9438
▁Cheese	-9439
▁lasted	-9440
▁ribbit	-9441
▁sneaks	-9442
▁speaks	-9443
▁Rainbow	-9444
▁chatter	-9445
▁exhibit	-9446
▁explode	-9447
▁heavily	-9448
▁plumber	-9449
▁trailer	-9450
▁carnival	-9451
▁deserves	-9452
▁stomachs	-9453
▁whiskers	-9454
▁regularly	-9455
▁challenges	-9456
▁mesmerised	-9457
bs	-9458
Moo	-9459
bur	-9460
▁--	-9461
Rain	-9462
than	-9463
Daisy	-9464
brina	-9465
▁Find	-9466
▁Nate	-9467
▁Susy	-9468
▁clip	-9469
▁manâ	-9470
▁Cathy	-9471
▁Matty	-9472
▁cooed	-9473
▁hatch	-9474
▁baller	-9475
▁bundle	-9476
▁dusted	-9477
▁fences	-9478
▁gulped	-9479
▁kinder	-9480
▁leaped	-9481
▁rinsed	-9482
▁roller	-9483
▁sevent	-9484
▁throne	-9485
▁Sabrina	-9486
▁barrels	-9487
▁calming	-9488
▁builders	-9489
▁deciding	-9490
▁massages	-9491
▁progress	-9492
▁rightful	-9493
▁stacking	-9494
▁magnificent	-9495
omp	-9496
alia	-9497
lock	-9498
mers	-9499
oors	-9500
Teddy	-9501
iggie	-9502
ousel	-9503
reled	-9504
▁Sean	-9505
▁clue	-9506
▁hips	-9507
▁hoof	-9508
▁keen	-9509
▁poop	-9510
▁rags	-9511
▁taps	-9512
▁webs	-9513
ection	-9514
▁Randy	-9515
▁Taylor	-9516
▁necess	-9517
▁pollen	-9518
▁unfold	-9519
urrender	-9520
▁amongst	-9521
▁charged	-9522
▁flavour	-9523
▁guitars	-9524
▁indoors	-9525
▁keyhole	-9526
▁softest	-9527
▁winking	-9528
▁champion	-9529
▁greatest	-9530
▁nibbling	-9531
▁tempting	-9532
▁attaching	-9533
▁desperate	-9534
▁instincts	-9535
▁quarreled	-9536
▁restoring	-9537
Abracadabra	-9538
▁brightened	-9539
▁disagreement	-9540
iet	-9541
▁20	-9542
acey	-9543
riet	-9544
▁Sil	-9545
▁shh	-9546
ality	-9547
inema	-9548
urity	-9549
▁Beat	-9550
▁Fuzz	-9551
▁Turn	-9552
▁coop	-9553
▁dumb	-9554
▁fulf	-9555
colate	-9556
ically	-9557
orious	-9558
▁Chuck	-9559
▁Jemma	-9560
▁gorge	-9561
▁laces	-9562
▁sends	-9563
▁shaky	-9564
▁speck	-9565
▁Carrie	-9566
▁Jeremy	-9567
▁centre	-9568
▁cutest	-9569
▁depths	-9570
▁descri	-9571
▁elders	-9572
▁launch	-9573
▁melons	-9574
▁possib	-9575
▁proved	-9576
▁shooed	-9577
▁stinky	-9578
▁Captain	-9579
▁dustpan	-9580
▁flooded	-9581
▁heights	-9582
▁pecking	-9583
▁sparrow	-9584
▁valleys	-9585
▁winners	-9586
▁Beatrice	-9587
▁gorgeous	-9588
▁macaroni	-9589
▁suggests	-9590
▁ballerina	-9591
▁reversing	-9592
▁displaying	-9593
▁persistence	-9594
ooh	-9595
rap	-9596
▁Hi	-9597
▁Ni	-9598
erts	-9599
icia	-9600
▁Sky	-9601
▁ass	-9602
▁mur	-9603
▁Tell	-9604
▁mold	-9605
œMummy	-9606
▁Whatâ	-9607
▁creep	-9608
▁dives	-9609
▁farms	-9610
▁grump	-9611
▁poles	-9612
▁rails	-9613
▁route	-9614
▁spice	-9615
▁winks	-9616
▁Things	-9617
▁Though	-9618
▁crispy	-9619
▁freely	-9620
▁grandk	-9621
▁halves	-9622
▁tiring	-9623
▁wrench	-9624
▁plopped	-9625
▁service	-9626
▁snoring	-9627
▁wobbles	-9628
▁carousel	-9629
▁desserts	-9630
▁servants	-9631
▁striking	-9632
▁yummiest	-9633
▁lifeguard	-9634
▁snuggling	-9635
▁untangled	-9636
▁Friendship	-9637
▁disagreeing	-9638
œM	-9639
nda	-9640
ssy	-9641
▁2,	-9642
▁Stu	-9643
▁Too	-9644
▁aid	-9645
▁obl	-9646
Achoo	-9647
fived	-9648
lings	-9649
ushes	-9650
▁Toys	-9651
▁priv	-9652
▁suck	-9653
ateful	-9654
iments	-9655
œWould	-9656
▁Ernie	-9657
▁Lilyâ	-9658
▁Miles	-9659
▁anten	-9660
▁beaks	-9661
▁birdâ	-9662
▁exist	-9663
▁loads	-9664
▁risky	-9665
▁sells	-9666
▁Biggie	-9667
▁Eating	-9668
▁Flappy	-9669
▁blooms	-9670
▁boiled	-9671
▁cinema	-9672
▁joyous	-9673
▁oldest	-9674
▁unload	-9675
▁Nibbles	-9676
▁appears	-9677
▁dripped	-9678
▁glanced	-9679
▁painful	-9680
▁panting	-9681
▁rooster	-9682
▁scowled	-9683
▁showers	-9684
▁disaster	-9685
▁homeless	-9686
▁toppings	-9687
▁borrowing	-9688
▁concerned	-9689
▁enchanted	-9690
▁occasions	-9691
▁department	-9692
▁obediently	-9693
▁possession	-9694
▁information	-9695
nut	-9696
ical	-9697
▁Mac	-9698
▁lur	-9699
▁sax	-9700
▁Cars	-9701
▁Char	-9702
▁Down	-9703
▁Rani	-9704
▁Yoga	-9705
▁fans	-9706
▁hoot	-9707
▁pose	-9708
▁yuck	-9709
ousand	-9710
▁Aaron	-9711
▁Carly	-9712
▁Ethan	-9713
▁Jelly	-9714
▁Juice	-9715
▁Kenny	-9716
▁files	-9717
▁forty	-9718
▁overf	-9719
▁peeks	-9720
▁slurp	-9721
▁swoop	-9722
▁Janice	-9723
▁gladly	-9724
▁online	-9725
▁overhe	-9726
▁unkind	-9727
▁woodpe	-9728
▁compare	-9729
▁hideout	-9730
▁hovered	-9731
▁parking	-9732
▁speaker	-9733
▁Confused	-9734
▁Madeline	-9735
▁clutched	-9736
▁managing	-9737
▁competing	-9738
▁necessary	-9739
▁automobiles	-9740
▁fashionable	-9741
▁frightening	-9742
?!	-9743
rit	-9744
why	-9745
imbo	-9746
look	-9747
phew	-9748
zing	-9749
▁Wow	-9750
▁unz	-9751
apple	-9752
ighty	-9753
▁Near	-9754
▁bolt	-9755
▁boyâ	-9756
▁buys	-9757
▁fuss	-9758
▁laws	-9759
▁remo	-9760
▁robe	-9761
▁soul	-9762
▁Flash	-9763
▁Jimbo	-9764
▁Mumma	-9765
▁Robin	-9766
▁folds	-9767
▁lakes	-9768
▁pairs	-9769
▁actors	-9770
▁nephew	-9771
▁offers	-9772
▁whines	-9773
▁buckles	-9774
▁guesses	-9775
▁handleb	-9776
▁pudding	-9777
▁rumbled	-9778
▁venture	-9779
▁overflow	-9780
▁security	-9781
▁sniffled	-9782
▁softness	-9783
▁squawked	-9784
▁stomping	-9785
▁thousand	-9786
▁delightful	-9787
▁woodpecker	-9788
▁complimented	-9789
OO	-9790
Un	-9791
res	-9792
away	-9793
orth	-9794
▁Cow	-9795
▁Gia	-9796
▁Roy	-9797
chard	-9798
▁Butt	-9799
▁dips	-9800
▁encl	-9801
▁hind	-9802
▁reck	-9803
▁ashes	-9804
▁creak	-9805
▁dodge	-9806
▁handy	-9807
▁hates	-9808
▁lonel	-9809
▁shots	-9810
▁skate	-9811
believe	-9812
cellent	-9813
▁Shadow	-9814
▁Squeak	-9815
▁double	-9816
▁rotted	-9817
▁wetter	-9818
▁wrists	-9819
▁Bethany	-9820
▁Cuddles	-9821
▁avoided	-9822
▁freshly	-9823
▁farthest	-9824
▁ladybird	-9825
▁lunchbox	-9826
▁scratchy	-9827
▁squirmed	-9828
▁swirling	-9829
▁twitched	-9830
▁Lightning	-9831
▁disobeyed	-9832
▁exchanged	-9833
▁saxophone	-9834
▁uncovered	-9835
▁dedication	-9836
▁possibilities	-9837
Co	-9838
Itâ	-9839
Mar	-9840
bly	-9841
fer	-9842
iky	-9843
she	-9844
▁Bop	-9845
▁Res	-9846
▁vol	-9847
▁Dora	-9848
▁Dove	-9849
▁Swim	-9850
▁pads	-9851
▁scre	-9852
▁unst	-9853
isible	-9854
▁Peace	-9855
▁armor	-9856
▁booth	-9857
▁clips	-9858
▁spied	-9859
▁Copper	-9860
▁Nature	-9861
▁Sarahâ	-9862
▁fooled	-9863
▁nudged	-9864
▁studio	-9865
▁urging	-9866
▁dodging	-9867
▁gliding	-9868
▁halfway	-9869
▁learner	-9870
▁passion	-9871
▁striped	-9872
▁hovering	-9873
▁ordering	-9874
▁reckless	-9875
▁shortcut	-9876
▁tastiest	-9877
▁gardening	-9878
▁hamburger	-9879
▁invisible	-9880
▁organised	-9881
▁shimmered	-9882
▁handlebars	-9883
yd	-9884
dog	-9885
idi	-9886
▁Vo	-9887
aids	-9888
good	-9889
ilar	-9890
imba	-9891
onut	-9892
▁Oak	-9893
▁caf	-9894
▁sha	-9895
osure	-9896
owers	-9897
œWait	-9898
▁host	-9899
▁inno	-9900
▁mats	-9901
Ribbit	-9902
▁Beary	-9903
▁Diana	-9904
▁Heidi	-9905
▁Jumpy	-9906
▁Lucyâ	-9907
▁Simba	-9908
▁blame	-9909
▁droop	-9910
▁palms	-9911
▁petal	-9912
Mittens	-9913
▁Grumpy	-9914
▁Mighty	-9915
▁signal	-9916
▁toothp	-9917
▁values	-9918
Everyone	-9919
▁coconut	-9920
▁crushed	-9921
▁lantern	-9922
▁science	-9923
▁majestic	-9924
▁contained	-9925
▁ducklings	-9926
▁enclosure	-9927
▁grandkids	-9928
▁scribbled	-9929
▁surrendering	-9930
NG	-9931
ga	-9932
▁9	-9933
gre	-9934
arer	-9935
made	-9936
scar	-9937
▁Boy	-9938
▁Fay	-9939
▁Pee	-9940
▁Whe	-9941
abeth	-9942
eller	-9943
œWill	-9944
▁Wake	-9945
▁adop	-9946
▁ages	-9947
Hooray	-9948
▁Alfie	-9949
▁Angie	-9950
▁Chewy	-9951
▁polka	-9952
▁raked	-9953
▁troll	-9954
▁Marcus	-9955
▁Marley	-9956
▁dining	-9957
▁produc	-9958
▁racers	-9959
▁raises	-9960
▁twirls	-9961
▁widely	-9962
▁frisbee	-9963
▁glimmer	-9964
▁orchard	-9965
▁ruffled	-9966
▁snowing	-9967
▁honeycom	-9968
▁projects	-9969
▁quarrell	-9970
▁smoother	-9971
▁stitched	-9972
▁cornfield	-9973
▁springing	-9974
▁nightstand	-9975
don	-9976
sey	-9977
▁py	-9978
form	-9979
othy	-9980
tock	-9981
ylan	-9982
dream	-9983
unted	-9984
▁Kids	-9985
▁rods	-9986
arning	-9987
▁Becca	-9988
▁Dylan	-9989
▁Missy	-9990
▁Ostri	-9991
▁capes	-9992
▁flyer	-9993
▁glows	-9994
▁grasp	-9995
▁rider	-9996
arewell	-9997
uttered	-9998
▁access	-9999
▁devast	-10000
▁squish	-10001
▁Buttons	-10002
▁lightly	-10003
▁pickles	-10004
▁reality	-10005
▁Cleaning	-10006
▁journeys	-10007
▁listener	-10008
▁Elizabeth	-10009
▁overheard	-10010
ks	-10011
œC	-10012
'?"	-10013
Got	-10014
Ooh	-10015
aly	-10016
ori	-10017
œMe	-10018
Emma	-10019
Move	-10020
ixie	-10021
ousy	-10022
▁Lay	-10023
▁Pop	-10024
▁Rel	-10025
▁Son	-10026
▁voy	-10027
sorry	-10028
▁Open	-10029
▁Rosy	-10030
▁code	-10031
▁damp	-10032
▁lens	-10033
▁roam	-10034
▁sunb	-10035
▁vacu	-10036
action	-10037
market	-10038
▁Goose	-10039
▁Stand	-10040
▁Stret	-10041
▁caves	-10042
▁combs	-10043
▁invol	-10044
▁spiky	-10045
▁tucks	-10046
Friends	-10047
▁Chicky	-10048
▁Ribbit	-10049
▁defend	-10050
▁pearls	-10051
▁prices	-10052
▁stormy	-10053
▁tingle	-10054
▁Harriet	-10055
▁Spanish	-10056
▁antlers	-10057
▁bounded	-10058
▁folders	-10059
▁ladders	-10060
▁lurking	-10061
▁mailing	-10062
▁shields	-10063
▁skating	-10064
▁weights	-10065
▁whether	-10066
▁approval	-10067
▁daydream	-10068
▁fiercely	-10069
▁purchase	-10070
▁reappear	-10071
▁tumbling	-10072
▁commotion	-10073
▁energized	-10074
▁pineapple	-10075
▁suitcases	-10076
▁devastated	-10077
▁reassuring	-10078
▁succeeding	-10079
▁threatened	-10080
▁confidently	-10081
ongratulations	-10082
Dog	-10083
bec	-10084
eng	-10085
orty	-10086
shes	-10087
▁Mus	-10088
▁Old	-10089
▁god	-10090
ellow	-10091
▁Crab	-10092
▁Kara	-10093
▁Lynn	-10094
▁atop	-10095
▁capt	-10096
▁fanc	-10097
▁leng	-10098
▁loos	-10099
▁suns	-10100
▁trad	-10101
▁undo	-10102
ceeded	-10103
ophies	-10104
ressed	-10105
▁Faith	-10106
▁Mousy	-10107
▁Oscar	-10108
▁Pixie	-10109
▁confu	-10110
▁exams	-10111
▁gooey	-10112
▁scree	-10113
hearted	-10114
▁Father	-10115
▁Turtle	-10116
▁Walter	-10117
▁Wilbur	-10118
▁bleeds	-10119
▁dumped	-10120
▁horror	-10121
▁scrape	-10122
▁slight	-10123
▁Puddles	-10124
▁erasers	-10125
▁hurtful	-10126
▁kindest	-10127
▁steered	-10128
▁targets	-10129
▁thinner	-10130
▁wrecked	-10131
▁ladybugs	-10132
▁scolding	-10133
▁accepting	-10134
▁gradually	-10135
▁tightened	-10136
▁loneliness	-10137
▁practising	-10138
▁considerate	-10139
▁supermarket	-10140
▁surprisingly	-10141
hi	-10142
Cat	-10143
umn	-10144
▁1,	-10145
Bird	-10146
Make	-10147
More	-10148
ecul	-10149
mate	-10150
mosp	-10151
▁Gin	-10152
▁Mix	-10153
▁Run	-10154
▁awa	-10155
Enjoy	-10156
ooked	-10157
▁Bree	-10158
▁Read	-10159
▁fail	-10160
▁howl	-10161
▁sizz	-10162
▁snip	-10163
▁tutu	-10164
creams	-10165
riting	-10166
▁dries	-10167
▁gruff	-10168
▁pinec	-10169
▁Carrot	-10170
▁Joseph	-10171
▁Juliet	-10172
▁Justin	-10173
▁atmosp	-10174
▁barbec	-10175
▁bobbed	-10176
▁constr	-10177
▁darted	-10178
▁explan	-10179
▁guided	-10180
▁Singing	-10181
▁clucked	-10182
▁command	-10183
▁swirled	-10184
▁wiggles	-10185
Something	-10186
▁addition	-10187
▁contents	-10188
▁leopards	-10189
▁reaction	-10190
▁refusing	-10191
▁scooping	-10192
▁sickness	-10193
▁trophies	-10194
▁unicorns	-10195
▁birthdays	-10196
▁panicking	-10197
▁raincoats	-10198
▁stretcher	-10199
▁supplying	-10200
▁atmosphere	-10201
zo	-10202
Leo	-10203
ala	-10204
ham	-10205
Snow	-10206
cies	-10207
issy	-10208
mony	-10209
stal	-10210
wing	-10211
▁Tri	-10212
Bless	-10213
arled	-10214
istle	-10215
nings	-10216
tling	-10217
▁Bees	-10218
▁Boom	-10219
▁Jump	-10220
▁Puff	-10221
▁Tomâ	-10222
▁blob	-10223
▁deck	-10224
▁mend	-10225
▁owls	-10226
▁plat	-10227
▁tink	-10228
ildren	-10229
▁Marty	-10230
▁Strip	-10231
▁batch	-10232
▁beeps	-10233
▁boast	-10234
▁pecul	-10235
▁shame	-10236
▁yawns	-10237
isingly	-10238
▁Frustr	-10239
▁Smokey	-10240
▁chirps	-10241
▁doggie	-10242
▁lowers	-10243
▁prefer	-10244
▁rustle	-10245
▁tickly	-10246
▁twitch	-10247
▁unlike	-10248
▁voyage	-10249
▁Working	-10250
▁bullies	-10251
▁clearer	-10252
▁totally	-10253
▁biscuits	-10254
▁hopeless	-10255
▁injuries	-10256
▁measures	-10257
▁peculiar	-10258
▁platform	-10259
Everything	-10260
▁chattered	-10261
▁honeycomb	-10262
▁performer	-10263
▁proceeded	-10264
▁protector	-10265
▁discussion	-10266
▁respecting	-10267
▁suspicious	-10268
▁emergencies	-10269
.'"	-10270
can	-10271
mon	-10272
rop	-10273
ocks	-10274
▁Ned	-10275
▁Pup	-10276
▁gle	-10277
▁ray	-10278
Jenny	-10279
Silly	-10280
Sweet	-10281
▁Amaz	-10282
▁Clar	-10283
▁herd	-10284
▁jigg	-10285
▁kern	-10286
▁liar	-10287
▁rejo	-10288
▁Chess	-10289
▁Comet	-10290
▁Mason	-10291
▁Nicky	-10292
▁Paige	-10293
▁Small	-10294
▁Stacy	-10295
▁Trees	-10296
▁appet	-10297
▁begun	-10298
▁cooks	-10299
▁glimp	-10300
▁mustn	-10301
▁stiff	-10302
▁Debbie	-10303
▁juggle	-10304
▁wicked	-10305
▁Charles	-10306
▁Cookies	-10307
▁Monster	-10308
▁Ostrich	-10309
▁anyways	-10310
▁collage	-10311
▁musical	-10312
▁ceremony	-10313
▁entering	-10314
▁heaviest	-10315
▁hurrying	-10316
▁juggling	-10317
▁lighting	-10318
▁mischief	-10319
▁pounding	-10320
▁stretchy	-10321
▁terribly	-10322
▁tingling	-10323
▁unloaded	-10324
▁Afterward	-10325
▁Surprised	-10326
▁abilities	-10327
▁grumbling	-10328
tw	-10329
cel	-10330
Lisa	-10331
ping	-10332
▁Bre	-10333
▁hey	-10334
▁lif	-10335
▁mow	-10336
▁ris	-10337
▁unh	-10338
uster	-10339
▁Cole	-10340
▁Isla	-10341
▁More	-10342
▁begs	-10343
▁jaws	-10344
Beware	-10345
▁Blink	-10346
▁Brave	-10347
▁Cluck	-10348
▁Socky	-10349
▁aband	-10350
▁hairs	-10351
▁layer	-10352
▁postc	-10353
▁posts	-10354
▁runny	-10355
working	-10356
▁Willow	-10357
▁Zigzag	-10358
▁autumn	-10359
▁forced	-10360
▁retrie	-10361
grateful	-10362
▁furious	-10363
▁neighed	-10364
▁partner	-10365
▁ripples	-10366
▁arrested	-10367
▁clothing	-10368
▁delaying	-10369
▁tripping	-10370
▁confusing	-10371
▁disgusted	-10372
▁resisting	-10373
▁streaming	-10374
▁Frustrated	-10375
▁toothpaste	-10376
▁surrounding	-10377
▁concentrated	-10378
vo	-10379
bum	-10380
car	-10381
nds	-10382
▁3,	-10383
▁Af	-10384
Free	-10385
like	-10386
okay	-10387
pled	-10388
▁Cry	-10389
▁Eat	-10390
▁Lex	-10391
▁Use	-10392
▁cha	-10393
▁wax	-10394
▁wea	-10395
▁zig	-10396
smart	-10397
three	-10398
▁Anya	-10399
▁Bean	-10400
▁Maxâ	-10401
▁Noah	-10402
▁Wise	-10403
▁empt	-10404
▁kill	-10405
itcher	-10406
▁Black	-10407
▁Pingu	-10408
▁Pizza	-10409
▁Prune	-10410
▁Ratty	-10411
▁Wilma	-10412
▁acrob	-10413
▁meets	-10414
▁melts	-10415
▁nanny	-10416
▁plank	-10417
▁scaly	-10418
▁shuff	-10419
▁sixty	-10420
▁tales	-10421
berries	-10422
▁Alicia	-10423
▁cities	-10424
▁granny	-10425
▁imagin	-10426
▁owning	-10427
▁prison	-10428
▁richer	-10429
▁Brother	-10430
▁Thunder	-10431
▁arrives	-10432
▁equally	-10433
▁harmful	-10434
▁leaping	-10435
▁notices	-10436
▁pistols	-10437
▁quicker	-10438
▁seeking	-10439
▁somehow	-10440
▁stained	-10441
▁backward	-10442
▁barbecue	-10443
▁farewell	-10444
▁goldfish	-10445
▁holidays	-10446
▁horrible	-10447
▁lectures	-10448
▁lovingly	-10449
▁missiles	-10450
▁patients	-10451
▁training	-10452
▁wrappers	-10453
▁detective	-10454
▁scientists	-10455
▁ungrateful	-10456
▁concentrate	-10457
▁explanation	-10458
Bu	-10459
ew	-10460
po	-10461
œW	-10462
Ice	-10463
Two	-10464
ada	-10465
tiv	-10466
€™.	-10467
Mark	-10468
Shoo	-10469
eena	-10470
sery	-10471
▁Ron	-10472
▁Rup	-10473
▁Str	-10474
▁Tia	-10475
▁nug	-10476
▁som	-10477
▁unn	-10478
atted	-10479
ddies	-10480
œJohn	-10481
▁Cleo	-10482
▁Kind	-10483
▁Most	-10484
▁Want	-10485
▁mitt	-10486
▁site	-10487
Should	-10488
ential	-10489
ersaul	-10490
oulder	-10491
▁Fishy	-10492
▁Lance	-10493
▁Tracy	-10494
▁bangs	-10495
▁mower	-10496
▁niece	-10497
▁perch	-10498
▁theyâ	-10499
▁Bright	-10500
▁Cherry	-10501
▁Dinner	-10502
▁Honest	-10503
▁Rupert	-10504
▁chicks	-10505
▁clover	-10506
▁dialed	-10507
▁length	-10508
▁pastor	-10509
▁payoff	-10510
▁skinny	-10511
▁speedy	-10512
▁strict	-10513
▁Anytime	-10514
▁Imagine	-10515
▁Sundays	-10516
▁arrange	-10517
▁blossom	-10518
▁boulder	-10519
▁buddies	-10520
▁handles	-10521
▁nursery	-10522
▁padlock	-10523
▁patting	-10524
▁pitcher	-10525
▁sleeves	-10526
▁spirits	-10527
▁streams	-10528
▁Anything	-10529
▁settling	-10530
▁sneaking	-10531
▁spelling	-10532
▁dandelion	-10533
▁somersaul	-10534
▁disappears	-10535
▁sculptures	-10536
▁contentment	-10537
▁grandparent	-10538
▁introducing	-10539
▁Surprisingly	-10540
'."	-10541
Hop	-10542
gra	-10543
ute	-10544
▁ah	-10545
dest	-10546
itam	-10547
zzly	-10548
▁Jes	-10549
▁adv	-10550
▁div	-10551
▁pea	-10552
▁wil	-10553
flies	-10554
urple	-10555
▁Fore	-10556
▁Land	-10557
▁Much	-10558
▁hint	-10559
▁pals	-10560
▁vast	-10561
▁wadd	-10562
ashing	-10563
icated	-10564
▁Buffy	-10565
▁Janeâ	-10566
▁Percy	-10567
▁Raven	-10568
▁Rolly	-10569
▁blush	-10570
▁elder	-10571
▁gloom	-10572
▁honor	-10573
▁jeans	-10574
▁lumpy	-10575
▁misty	-10576
▁newly	-10577
▁slime	-10578
▁smash	-10579
▁tours	-10580
▁warns	-10581
Sharing	-10582
istened	-10583
▁Buster	-10584
▁Marvin	-10585
▁aisles	-10586
▁cables	-10587
▁captiv	-10588
▁eleven	-10589
▁howled	-10590
▁ninety	-10591
▁packet	-10592
▁Jackson	-10593
▁bubbled	-10594
▁embrace	-10595
▁glimpse	-10596
▁grumble	-10597
▁islands	-10598
▁praises	-10599
▁seventy	-10600
▁snarled	-10601
▁studies	-10602
▁villain	-10603
œRemember	-10604
▁forwards	-10605
▁grownups	-10606
▁numbered	-10607
▁pedalled	-10608
▁slightly	-10609
▁steaming	-10610
▁hammering	-10611
▁inspected	-10612
▁obstacles	-10613
▁recovered	-10614
▁wriggling	-10615
▁foreshadowed	-10616
▁grandchildren	-10617
AS	-10618
VD	-10619
ki	-10620
Fly	-10621
ami	-10622
œGo	-10623
abby	-10624
aken	-10625
erek	-10626
haps	-10627
iddy	-10628
ilot	-10629
mary	-10630
shop	-10631
stop	-10632
▁DVD	-10633
▁Hel	-10634
▁Hug	-10635
▁Mir	-10636
▁Pol	-10637
▁Val	-10638
Three	-10639
epeat	-10640
ierce	-10641
œMama	-10642
▁Dina	-10643
▁Doll	-10644
▁Erin	-10645
▁Geor	-10646
▁Roar	-10647
▁gumb	-10648
▁Derek	-10649
▁carts	-10650
▁carve	-10651
▁crows	-10652
▁cruel	-10653
▁desce	-10654
▁lobby	-10655
▁persu	-10656
▁potty	-10657
▁quizz	-10658
▁soggy	-10659
▁solid	-10660
▁vitam	-10661
▁Browny	-10662
▁Spider	-10663
▁Spirit	-10664
▁Yellow	-10665
▁cooper	-10666
▁fondly	-10667
▁sealed	-10668
▁sleeve	-10669
▁Dancing	-10670
▁anybody	-10671
▁begging	-10672
▁chances	-10673
▁gumball	-10674
▁nuggets	-10675
▁posters	-10676
▁springs	-10677
▁subject	-10678
▁Tuesdays	-10679
▁appetite	-10680
▁escaping	-10681
▁hungrier	-10682
▁removing	-10683
▁sneakers	-10684
▁snuggles	-10685
▁squashes	-10686
▁switches	-10687
▁cucumbers	-10688
▁favorites	-10689
▁hopefully	-10690
▁releasing	-10691
▁connection	-10692
▁flashlights	-10693
▁overflowing	-10694
▁independence	-10695
new	-10696
rem	-10697
two	-10698
baby	-10699
rous	-10700
œyou	-10701
▁App	-10702
▁Bug	-10703
▁Rad	-10704
▁Ria	-10705
▁Zog	-10706
▁laz	-10707
althy	-10708
berry	-10709
ecess	-10710
eetle	-10711
imals	-10712
oodle	-10713
ulous	-10714
unate	-10715
œHere	-10716
▁Ball	-10717
▁Cass	-10718
▁Faye	-10719
▁Fran	-10720
▁Hors	-10721
▁None	-10722
▁Whee	-10723
▁calf	-10724
▁caps	-10725
▁craz	-10726
▁oars	-10727
▁rink	-10728
▁snoo	-10729
coming	-10730
▁Afric	-10731
▁Barky	-10732
▁Close	-10733
▁Music	-10734
▁Nelly	-10735
▁Petal	-10736
▁Scott	-10737
▁Yummy	-10738
▁Zippy	-10739
▁aback	-10740
▁album	-10741
▁crust	-10742
▁fixer	-10743
▁oblig	-10744
▁props	-10745
▁tiara	-10746
▁tippy	-10747
▁Willie	-10748
▁behold	-10749
▁carved	-10750
▁curves	-10751
▁eighty	-10752
▁fourth	-10753
▁skates	-10754
▁stares	-10755
smelling	-10756
▁Grandad	-10757
▁Respect	-10758
▁antenna	-10759
▁ironing	-10760
▁resumed	-10761
▁roasted	-10762
▁sandals	-10763
▁scrunch	-10764
▁squeaks	-10765
▁bandaged	-10766
▁obstacle	-10767
▁outsmart	-10768
▁scuttled	-10769
▁wondrous	-10770
▁abandoned	-10771
▁glistened	-10772
▁shoreline	-10773
▁interrupted	-10774
od	-10775
.''	-10776
Squ	-10777
asy	-10778
ior	-10779
ooo	-10780
From	-10781
ooke	-10782
ruck	-10783
tles	-10784
▁Ari	-10785
▁jay	-10786
▁sim	-10787
Right	-10788
acing	-10789
loria	-10790
udrey	-10791
œHelp	-10792
▁Bozo	-10793
▁Gert	-10794
▁Last	-10795
▁Lexi	-10796
▁Mars	-10797
▁Mole	-10798
▁Must	-10799
▁Soup	-10800
▁huff	-10801
▁sips	-10802
▁unsc	-10803
Shrink	-10804
umpkin	-10805
▁Ellen	-10806
▁Fluff	-10807
▁chaos	-10808
▁chunk	-10809
▁fixes	-10810
▁fully	-10811
▁hobby	-10812
▁mixes	-10813
▁perse	-10814
▁ruled	-10815
▁saves	-10816
▁slams	-10817
▁stump	-10818
roccoli	-10819
welcome	-10820
▁Brooke	-10821
▁Gloria	-10822
▁Monica	-10823
▁Sharon	-10824
▁bruise	-10825
▁cursed	-10826
▁drople	-10827
▁shades	-10828
Whenever	-10829
ecessary	-10830
▁Annabel	-10831
▁Matthew	-10832
▁Reading	-10833
▁friendâ	-10834
▁greater	-10835
▁obliged	-10836
▁paramed	-10837
▁pinches	-10838
▁quizzes	-10839
▁recipes	-10840
▁remains	-10841
▁sipping	-10842
▁blessing	-10843
▁captured	-10844
▁coolness	-10845
▁cucumber	-10846
▁figuring	-10847
▁flavours	-10848
▁hammered	-10849
▁knitting	-10850
▁mornings	-10851
▁strummed	-10852
▁wasteful	-10853
▁workshop	-10854
▁cigarette	-10855
▁nightfall	-10856
▁strolling	-10857
▁separating	-10858
▁possessions	-10859
▁unnecessary	-10860
Ble	-10861
cup	-10862
iko	-10863
saw	-10864
œIs	-10865
Push	-10866
Whoa	-10867
beha	-10868
four	-10869
ilst	-10870
nine	-10871
rays	-10872
œMum	-10873
▁10.	-10874
▁Agn	-10875
▁Aid	-10876
▁Bea	-10877
▁Col	-10878
▁Yay	-10879
Climb	-10880
Trust	-10881
cling	-10882
inter	-10883
ively	-10884
stalk	-10885
▁Dawn	-10886
▁Gail	-10887
▁Happ	-10888
▁Mild	-10889
▁Pain	-10890
▁Rick	-10891
▁limp	-10892
▁mini	-10893
▁ogre	-10894
▁plun	-10895
▁sheâ	-10896
▁shif	-10897
▁tone	-10898
Freeze	-10899
inting	-10900
▁Dizzy	-10901
▁Gerry	-10902
▁Pippy	-10903
▁Thump	-10904
▁Tippy	-10905
▁White	-10906
▁dates	-10907
▁disob	-10908
▁drags	-10909
▁murky	-10910
▁total	-10911
ocolate	-10912
▁Audrey	-10913
▁Faster	-10914
▁Fierce	-10915
▁Graham	-10916
▁Maxine	-10917
▁Rollie	-10918
▁blurry	-10919
▁mommyâ	-10920
▁otherâ	-10921
▁riches	-10922
▁seated	-10923
▁sicker	-10924
▁boatman	-10925
▁charity	-10926
▁fifteen	-10927
▁fitting	-10928
▁hammers	-10929
▁placing	-10930
▁witches	-10931
▁Mustache	-10932
▁acrobats	-10933
▁grinning	-10934
▁smoothie	-10935
▁squatted	-10936
▁waitress	-10937
▁replacing	-10938
▁challenging	-10939
▁importantly	-10940
▁thoughtfully	-10941
▁conversations	-10942
Br	-10943
cr	-10944
!''	-10945
mar	-10946
oes	-10947
vey	-10948
oosh	-10949
umph	-10950
▁Kit	-10951
▁gad	-10952
▁vow	-10953
Blech	-10954
Close	-10955
armed	-10956
isher	-10957
obble	-10958
seven	-10959
▁Ding	-10960
▁Lady	-10961
▁Spin	-10962
▁guid	-10963
▁rasp	-10964
▁rent	-10965
▁slot	-10966
iffere	-10967
llowed	-10968
▁North	-10969
▁Silly	-10970
▁blues	-10971
▁canes	-10972
▁curls	-10973
▁destr	-10974
▁mound	-10975
▁rises	-10976
▁setup	-10977
▁stems	-10978
aculous	-10979
▁Africa	-10980
▁Bailey	-10981
▁Bubble	-10982
▁Wiggly	-10983
▁events	-10984
▁fading	-10985
▁frames	-10986
▁jumper	-10987
▁kneels	-10988
▁limits	-10989
▁motors	-10990
▁priest	-10991
▁spades	-10992
▁squawk	-10993
▁squirt	-10994
▁stalks	-10995
▁Stripes	-10996
▁awaited	-10997
▁bedside	-10998
▁catcher	-10999
▁coaster	-11000
▁gaining	-11001
▁messing	-11002
▁repairs	-11003
▁strikes	-11004
▁trudged	-11005
▁useless	-11006
▁admitted	-11007
▁guidance	-11008
▁requests	-11009
▁sweating	-11010
▁sweeping	-11011
▁attendant	-11012
▁excellent	-11013
▁invention	-11014
▁notebooks	-11015
▁captivated	-11016
▁slithering	-11017
▁victorious	-11018
▁imaginative	-11019
▁impatiently	-11020
▁quarrelling	-11021
Whe	-11022
ams	-11023
bet	-11024
haw	-11025
six	-11026
ume	-11027
urr	-11028
Mary	-11029
Mmmm	-11030
ants	-11031
aper	-11032
mill	-11033
pole	-11034
umbs	-11035
wood	-11036
▁due	-11037
▁pes	-11038
▁sly	-11039
Kitty	-11040
eight	-11041
gling	-11042
imber	-11043
▁Cody	-11044
▁Joel	-11045
▁cabb	-11046
▁crum	-11047
▁dazz	-11048
▁pave	-11049
▁recy	-11050
▁reel	-11051
▁summ	-11052
▁sunk	-11053
▁viol	-11054
areful	-11055
giving	-11056
itness	-11057
solved	-11058
stream	-11059
▁Alexa	-11060
▁Doing	-11061
▁Elisa	-11062
▁Jules	-11063
▁Panda	-11064
▁clums	-11065
▁const	-11066
▁fired	-11067
▁react	-11068
▁sinks	-11069
▁sunda	-11070
▁Angela	-11071
▁Kaylee	-11072
▁adored	-11073
▁affect	-11074
▁bumble	-11075
▁device	-11076
▁dodges	-11077
▁flowed	-11078
▁golfer	-11079
▁injury	-11080
▁trails	-11081
ifferent	-11082
▁Crystal	-11083
▁Flowers	-11084
▁Neither	-11085
▁bobbing	-11086
▁cartwhe	-11087
▁classes	-11088
▁conquer	-11089
▁creaked	-11090
▁emptied	-11091
▁fabrics	-11092
▁grounds	-11093
▁nestled	-11094
▁refuses	-11095
▁scooted	-11096
▁shrimps	-11097
▁snipped	-11098
▁stylish	-11099
▁twinkly	-11100
▁uncover	-11101
▁unlocks	-11102
▁unlucky	-11103
▁unscrew	-11104
▁whining	-11105
▁carriage	-11106
▁creaking	-11107
▁flippers	-11108
▁position	-11109
▁rejoiced	-11110
▁securely	-11111
▁warriors	-11112
▁Gradually	-11113
▁beanstalk	-11114
▁godmother	-11115
▁popsicles	-11116
▁storybook	-11117
▁silverware	-11118
▁combination	-11119
BC	-11120
Im	-11121
wh	-11122
œB	-11123
Eat	-11124
Mag	-11125
May	-11126
Ten	-11127
alf	-11128
▁Gu	-11129
▁ic	-11130
atic	-11131
dles	-11132
reet	-11133
talk	-11134
▁ABC	-11135
▁Gen	-11136
▁Mei	-11137
▁Mya	-11138
▁neg	-11139
arrot	-11140
erris	-11141
horse	-11142
igher	-11143
robes	-11144
▁Amen	-11145
▁Barb	-11146
▁Mint	-11147
▁brag	-11148
▁envy	-11149
▁gobl	-11150
▁plow	-11151
▁rect	-11152
▁sons	-11153
▁swer	-11154
▁tend	-11155
▁tran	-11156
▁whim	-11157
istory	-11158
ousers	-11159
▁Birds	-11160
▁Hours	-11161
▁Marcy	-11162
▁Pasta	-11163
▁chees	-11164
▁chewy	-11165
▁cords	-11166
▁curry	-11167
▁curve	-11168
▁demon	-11169
▁grain	-11170
▁salsa	-11171
▁smoot	-11172
▁views	-11173
▁BunBun	-11174
▁Silver	-11175
▁assist	-11176
▁creepy	-11177
▁perked	-11178
▁puffed	-11179
▁rattle	-11180
▁stripe	-11181
▁Promise	-11182
▁bending	-11183
▁bruised	-11184
▁cabbage	-11185
▁chugged	-11186
▁combing	-11187
▁dirtier	-11188
▁pointer	-11189
▁records	-11190
▁spelled	-11191
▁triumph	-11192
▁whizzed	-11193
▁wrinkly	-11194
▁antennae	-11195
▁brighten	-11196
▁crumpled	-11197
▁embraced	-11198
▁grounded	-11199
▁innocent	-11200
▁mastered	-11201
▁pavement	-11202
▁protects	-11203
▁traveler	-11204
▁trousers	-11205
▁unfolded	-11206
▁vitamins	-11207
▁Goodnight	-11208
▁achieving	-11209
▁apartment	-11210
▁attracted	-11211
▁clutching	-11212
▁described	-11213
▁fulfilled	-11214
▁glimmered	-11215
▁sleepover	-11216
▁splitting	-11217
▁Wednesdays	-11218
▁preventing	-11219
▁tablecloth	-11220
▁adventurers	-11221
▁complicated	-11222
▁contentedly	-11223
▁disobedient	-11224
▁earthquakes	-11225
▁friendships	-11226
▁construction	-11227
As	-11228
ok	-11229
eee	-11230
enn	-11231
nap	-11232
net	-11233
onk	-11234
run	-11235
udy	-11236
ums	-11237
use	-11238
war	-11239
▁15	-11240
Blue	-11241
Tell	-11242
asey	-11243
lect	-11244
rain	-11245
reck	-11246
▁Int	-11247
▁Mic	-11248
▁Nia	-11249
enzie	-11250
icity	-11251
isins	-11252
itive	-11253
tract	-11254
▁Abbi	-11255
▁Plus	-11256
▁Purr	-11257
▁Race	-11258
▁Salt	-11259
▁oink	-11260
▁pail	-11261
▁pang	-11262
▁pedd	-11263
▁radi	-11264
▁scan	-11265
▁silk	-11266
▁tang	-11267
friend	-11268
▁Agnes	-11269
▁Horsy	-11270
▁Layla	-11271
▁Petey	-11272
▁bands	-11273
▁chann	-11274
▁deeds	-11275
▁lamps	-11276
▁strut	-11277
▁wands	-11278
brushes	-11279
▁Flower	-11280
▁Mollyâ	-11281
▁Sidney	-11282
▁Stacey	-11283
▁copies	-11284
▁cupped	-11285
▁curved	-11286
▁feared	-11287
▁giants	-11288
▁inched	-11289
▁jingle	-11290
▁litter	-11291
▁snails	-11292
▁surfer	-11293
▁territ	-11294
▁walkie	-11295
▁Melanie	-11296
▁Stephen	-11297
▁Stripey	-11298
▁birdies	-11299
▁closest	-11300
▁crooked	-11301
▁cutters	-11302
▁fingert	-11303
▁howling	-11304
▁kernels	-11305
▁parrots	-11306
▁pasture	-11307
▁quality	-11308
▁stunned	-11309
▁tastier	-11310
▁turkeys	-11311
▁warming	-11312
▁whimper	-11313
▁Felicity	-11314
▁Kindness	-11315
▁Stealing	-11316
▁combined	-11317
▁cracking	-11318
▁demonstr	-11319
▁dragging	-11320
▁drifting	-11321
▁droplets	-11322
▁gestures	-11323
▁motioned	-11324
▁normally	-11325
▁register	-11326
▁searches	-11327
▁trumpets	-11328
▁whirring	-11329
▁blessings	-11330
▁dishonest	-11331
▁journeyed	-11332
▁potential	-11333
▁promising	-11334
▁thousands	-11335
▁accidently	-11336
▁background	-11337
▁reflecting	-11338
▁clothesline	-11339
▁embarrassment	-11340
▁.	-11341
ASH	-11342
Eww	-11343
bun	-11344
cip	-11345
ino	-11346
tes	-11347
ula	-11348
▁Ot	-11349
Phew	-11350
With	-11351
ills	-11352
knob	-11353
mind	-11354
pair	-11355
udge	-11356
▁Jet	-11357
▁Jog	-11358
▁Yet	-11359
Catch	-11360
anked	-11361
œJust	-11362
œStop	-11363
▁Cott	-11364
▁bins	-11365
▁cafÃ	-11366
▁foss	-11367
▁lace	-11368
▁sauc	-11369
▁thaw	-11370
ession	-11371
master	-11372
remely	-11373
▁Asked	-11374
▁Bobbi	-11375
▁Climb	-11376
▁Cloud	-11377
▁Fanny	-11378
▁Tabby	-11379
▁Three	-11380
▁cawed	-11381
▁guilt	-11382
▁loser	-11383
▁puffy	-11384
▁roofs	-11385
▁urges	-11386
▁Amelie	-11387
▁Sallyâ	-11388
▁Should	-11389
▁Zipper	-11390
▁adjust	-11391
▁cocked	-11392
▁effect	-11393
▁hooked	-11394
▁impact	-11395
▁marvel	-11396
▁mended	-11397
▁parlor	-11398
▁report	-11399
▁resour	-11400
▁saddle	-11401
▁storyt	-11402
▁talons	-11403
▁unison	-11404
▁Pumpkin	-11405
▁clamber	-11406
▁climber	-11407
▁crumble	-11408
▁daddies	-11409
▁demands	-11410
▁forming	-11411
▁guarded	-11412
▁princip	-11413
▁rustled	-11414
▁screech	-11415
▁unstuck	-11416
▁vendors	-11417
▁witness	-11418
▁yummier	-11419
▁cabinets	-11420
▁doorknob	-11421
▁Mackenzie	-11422
▁colouring	-11423
▁crunching	-11424
▁extremely	-11425
▁fishermen	-11426
▁remaining	-11427
▁staircase	-11428
▁whooshing	-11429
▁suggesting	-11430
▁supportive	-11431
inn	-11432
lla	-11433
lot	-11434
tre	-11435
Brrr	-11436
acon	-11437
anky	-11438
eech	-11439
loat	-11440
rite	-11441
▁Fur	-11442
▁Mor	-11443
▁Ped	-11444
▁Roc	-11445
▁gal	-11446
Emily	-11447
agged	-11448
asper	-11449
jamin	-11450
liest	-11451
pilot	-11452
stret	-11453
unior	-11454
œYour	-11455
▁Beef	-11456
▁Bobâ	-11457
▁Bugs	-11458
▁Club	-11459
▁Dogs	-11460
▁High	-11461
▁Meow	-11462
▁Samâ	-11463
▁dial	-11464
▁hare	-11465
▁rung	-11466
▁tack	-11467
▁unpl	-11468
▁weed	-11469
ancing	-11470
beying	-11471
crumbs	-11472
filled	-11473
▁Hippy	-11474
▁Lions	-11475
▁Mindy	-11476
▁Trina	-11477
▁bills	-11478
▁boost	-11479
▁brake	-11480
▁jacks	-11481
▁outer	-11482
▁silky	-11483
▁stash	-11484
certain	-11485
intment	-11486
▁Bunbun	-11487
▁Nathan	-11488
▁afloat	-11489
▁blinks	-11490
▁cheesy	-11491
▁gobble	-11492
▁shaken	-11493
▁shaker	-11494
▁speech	-11495
▁speeds	-11496
▁spoken	-11497
▁thereâ	-11498
▁vacuum	-11499
▁worlds	-11500
coloured	-11501
œBecause	-11502
▁blended	-11503
▁crackle	-11504
▁endings	-11505
▁existed	-11506
▁handled	-11507
▁messier	-11508
▁options	-11509
▁raisins	-11510
▁shifted	-11511
▁shimmer	-11512
▁snuggly	-11513
▁tending	-11514
▁trimmed	-11515
▁uniting	-11516
▁zippers	-11517
▁Benjamin	-11518
▁Lancelot	-11519
▁Standing	-11520
▁croaking	-11521
▁postcard	-11522
▁quickest	-11523
▁sledding	-11524
▁subjects	-11525
▁subtract	-11526
▁receiving	-11527
▁Underneath	-11528
▁cleverness	-11529
▁breadcrumbs	-11530
▁destruction	-11531
▁selfishness	-11532
Iâ	-11533
Te	-11534
mi	-11535
?,"	-11536
Use	-11537
nny	-11538
wee	-11539
wow	-11540
▁gn	-11541
▁oo	-11542
Cool	-11543
Five	-11544
ambi	-11545
erie	-11546
eyed	-11547
ggie	-11548
have	-11549
irew	-11550
orks	-11551
rors	-11552
▁Bry	-11553
▁Nat	-11554
▁Seb	-11555
▁sul	-11556
▁tad	-11557
▁ups	-11558
Looks	-11559
Uncle	-11560
acher	-11561
arney	-11562
etime	-11563
▁Cora	-11564
▁Glow	-11565
▁Home	-11566
▁Jade	-11567
▁Lula	-11568
▁Lyla	-11569
▁Pole	-11570
▁Ring	-11571
▁halo	-11572
▁plus	-11573
▁rash	-11574
▁sixt	-11575
Johnny	-11576
alling	-11577
astian	-11578
handed	-11579
lessly	-11580
ndered	-11581
▁Furry	-11582
▁Merry	-11583
▁Money	-11584
▁Pedro	-11585
▁Think	-11586
▁braid	-11587
▁glide	-11588
▁layed	-11589
▁mitts	-11590
▁pouts	-11591
▁slows	-11592
▁smoky	-11593
▁Barney	-11594
▁Beetle	-11595
▁Flying	-11596
▁Winnie	-11597
▁boomed	-11598
▁donate	-11599
▁driven	-11600
▁grains	-11601
▁heated	-11602
▁motorb	-11603
▁quiver	-11604
▁rarely	-11605
▁serves	-11606
▁sprung	-11607
▁squeal	-11608
▁starry	-11609
▁Helping	-11610
▁Thumper	-11611
▁compost	-11612
▁despair	-11613
▁pendant	-11614
▁princes	-11615
▁sunsets	-11616
▁timidly	-11617
▁fastened	-11618
▁lifetime	-11619
▁ointment	-11620
▁outstret	-11621
▁shuffled	-11622
▁stunning	-11623
▁toughest	-11624
▁wobbling	-11625
▁Chocolate	-11626
▁Different	-11627
▁Sebastian	-11628
▁bathrobes	-11629
▁childhood	-11630
▁fortunate	-11631
▁gentleman	-11632
▁principal	-11633
▁regretful	-11634
▁teammates	-11635
▁tiredness	-11636
▁uncertain	-11637
▁recordings	-11638
▁thankfully	-11639
▁disturbance	-11640
Um	-11641
Ann	-11642
hot	-11643
rid	-11644
van	-11645
vie	-11646
ydr	-11647
▁Lo	-11648
▁SP	-11649
▁tv	-11650
Jake	-11651
Stir	-11652
chen	-11653
girl	-11654
lpha	-11655
pill	-11656
rope	-11657
vere	-11658
▁Dis	-11659
▁Eve	-11660
▁bay	-11661
▁ins	-11662
▁raw	-11663
▁tul	-11664
Alice	-11665
Pizza	-11666
annah	-11667
idget	-11668
vious	-11669
▁Dare	-11670
▁Milk	-11671
▁Owen	-11672
▁bled	-11673
▁burp	-11674
▁dadâ	-11675
▁doub	-11676
▁hydr	-11677
▁jogs	-11678
▁lays	-11679
▁ruby	-11680
athing	-11681
freeze	-11682
idered	-11683
phones	-11684
▁Bambi	-11685
▁Bloom	-11686
▁Marla	-11687
▁adopt	-11688
▁banks	-11689
▁chant	-11690
▁clung	-11691
▁firet	-11692
▁ouchy	-11693
▁pesky	-11694
▁ponyt	-11695
▁stray	-11696
▁tilts	-11697
Careful	-11698
Twinkle	-11699
lphabet	-11700
▁Crusty	-11701
▁Edward	-11702
▁desire	-11703
▁erased	-11704
▁goblin	-11705
▁loosen	-11706
▁outing	-11707
▁photog	-11708
▁pounce	-11709
▁salads	-11710
▁snatch	-11711
▁Believe	-11712
▁Officer	-11713
▁Smiling	-11714
▁Stretch	-11715
▁Timothy	-11716
▁Writing	-11717
▁capable	-11718
▁critter	-11719
▁fetches	-11720
▁gadgets	-11721
▁grizzly	-11722
▁grownup	-11723
▁tighten	-11724
▁tossing	-11725
▁wheeled	-11726
▁whirled	-11727
Surrender	-11728
▁fanciest	-11729
▁shouldnâ	-11730
▁sprinted	-11731
▁stations	-11732
▁anxiously	-11733
▁bumblebee	-11734
▁descended	-11735
▁firetruck	-11736
▁playfully	-11737
▁territory	-11738
▁fingertips	-11739
▁nightlight	-11740
▁hardworking	-11741
▁outstretched	-11742
11	-11743
Pe	-11744
Sw	-11745
!'"	-11746
Fro	-11747
Pat	-11748
Say	-11749
att	-11750
cra	-11751
ndy	-11752
tha	-11753
via	-11754
▁12	-11755
▁ec	-11756
Grow	-11757
izer	-11758
usie	-11759
▁100	-11760
▁911	-11761
▁Gas	-11762
▁Pig	-11763
▁cul	-11764
Being	-11765
Greet	-11766
aries	-11767
check	-11768
enses	-11769
erson	-11770
fying	-11771
▁Drop	-11772
▁Hugo	-11773
▁Marg	-11774
▁Olly	-11775
▁Work	-11776
▁aims	-11777
▁erra	-11778
▁fate	-11779
▁icic	-11780
▁main	-11781
▁vari	-11782
itters	-11783
lderly	-11784
▁Casey	-11785
▁Count	-11786
▁Horse	-11787
▁Louie	-11788
▁Piper	-11789
▁Tooth	-11790
▁Truck	-11791
▁calms	-11792
▁donut	-11793
▁fists	-11794
▁hiked	-11795
▁minty	-11796
▁rhyme	-11797
▁snore	-11798
▁Bertha	-11799
▁Having	-11800
▁Mister	-11801
▁Mollie	-11802
▁Winter	-11803
▁fairly	-11804
▁itches	-11805
▁lately	-11806
▁limped	-11807
▁lunged	-11808
▁scraps	-11809
▁screec	-11810
▁smarts	-11811
▁snorts	-11812
▁snowed	-11813
▁squigg	-11814
▁streak	-11815
▁Animals	-11816
▁Heather	-11817
▁Whistle	-11818
▁battles	-11819
▁bleated	-11820
▁booming	-11821
▁crosses	-11822
▁culture	-11823
▁instant	-11824
▁motions	-11825
▁nuzzles	-11826
▁paddles	-11827
▁pruning	-11828
▁replies	-11829
▁surfers	-11830
▁trained	-11831
▁wriggle	-11832
▁yellows	-11833
▁zigzags	-11834
▁alphabet	-11835
▁chugging	-11836
▁gleaming	-11837
▁homemade	-11838
▁keyboard	-11839
▁pinecone	-11840
▁seahorse	-11841
▁yielding	-11842
▁Intrigued	-11843
▁infection	-11844
▁marveling	-11845
▁transform	-11846
▁carelessly	-11847
▁chalkboard	-11848
▁considered	-11849
▁sprinkling	-11850
▁wonderland	-11851
▁accessories	-11852
▁collections	-11853
▁threatening	-11854
OP	-11855
ex	-11856
!,"	-11857
Sir	-11858
Sun	-11859
ini	-11860
xie	-11861
▁30	-11862
Ring	-11863
Wake	-11864
eras	-11865
izmo	-11866
oris	-11867
upid	-11868
wear	-11869
▁Aly	-11870
▁Bao	-11871
▁Bon	-11872
▁Eag	-11873
▁Jem	-11874
▁Lin	-11875
▁Pri	-11876
▁Reg	-11877
▁SPL	-11878
▁Ske	-11879
▁bid	-11880
▁cin	-11881
▁rev	-11882
▁rum	-11883
Chirp	-11884
igeon	-11885
namon	-11886
▁Cake	-11887
▁Half	-11888
▁Lacy	-11889
▁Lazy	-11890
▁Roll	-11891
▁Seth	-11892
▁Worm	-11893
▁clam	-11894
▁dism	-11895
▁dizz	-11896
▁ecst	-11897
▁imit	-11898
▁prey	-11899
▁prof	-11900
▁rosy	-11901
▁toad	-11902
flower	-11903
talkie	-11904
▁Brady	-11905
▁Drink	-11906
▁Gilly	-11907
▁Jolly	-11908
▁Micky	-11909
▁blind	-11910
▁cents	-11911
▁galax	-11912
▁greed	-11913
▁leaks	-11914
▁lolly	-11915
▁sales	-11916
▁sunbe	-11917
▁yelps	-11918
covered	-11919
venture	-11920
▁Clucky	-11921
▁Connie	-11922
▁Marian	-11923
▁Purple	-11924
▁Skelly	-11925
▁ballet	-11926
▁elbows	-11927
▁flakes	-11928
▁looped	-11929
▁mostly	-11930
▁remark	-11931
▁sucked	-11932
▁sundae	-11933
▁tagged	-11934
▁trades	-11935
▁tumble	-11936
▁volume	-11937
▁whilst	-11938
Children	-11939
kerchief	-11940
▁Volcano	-11941
▁carpets	-11942
▁grasped	-11943
▁grazing	-11944
▁ignores	-11945
▁mirrors	-11946
▁needing	-11947
▁outdoor	-11948
▁pricked	-11949
▁runners	-11950
▁savored	-11951
▁sharpen	-11952
▁tiptoes	-11953
▁Gretchen	-11954
▁announce	-11955
▁cinnamon	-11956
▁displays	-11957
▁doughnut	-11958
▁ecstatic	-11959
▁involved	-11960
▁littlest	-11961
▁meetings	-11962
▁recently	-11963
▁sideways	-11964
▁stroking	-11965
▁tinkling	-11966
▁clambered	-11967
▁recycling	-11968
▁retrieved	-11969
▁screeched	-11970
▁teaspoons	-11971
▁tightrope	-11972
▁headphones	-11973
▁experiments	-11974
▁somersaults	-11975
▁storyteller	-11976
▁Thanksgiving	-11977
▁cauliflowers	-11978
▁handkerchief	-11979
NA	-11980
Po	-11981
Ra	-11982
œL	-11983
Red	-11984
Zoo	-11985
aya	-11986
iya	-11987
▁"1	-11988
▁Ce	-11989
Even	-11990
Miss	-11991
Poor	-11992
ancy	-11993
bang	-11994
ific	-11995
ornn	-11996
▁Ask	-11997
▁Fun	-11998
▁Lea	-11999
▁Tip	-12000
▁War	-12001
▁Zac	-12002
▁mid	-12003
Drink	-12004
Thatâ	-12005
auses	-12006
helle	-12007
otato	-12008
ringe	-12009
spass	-12010
urray	-12011
œWhen	-12012
▁Chad	-12013
▁Dolp	-12014
▁Elli	-12015
▁Marc	-12016
▁Sale	-12017
▁Wink	-12018
▁balc	-12019
▁loaf	-12020
▁nick	-12021
▁spir	-12022
nowing	-12023
urious	-12024
ushing	-12025
▁Aiden	-12026
▁Clown	-12027
▁Gizmo	-12028
▁Moira	-12029
▁Muffy	-12030
▁Rocco	-12031
▁Shall	-12032
▁Sully	-12033
▁Twist	-12034
▁Vicky	-12035
▁based	-12036
▁brist	-12037
▁equal	-12038
▁flush	-12039
▁moist	-12040
▁shove	-12041
▁spect	-12042
▁spine	-12043
▁spout	-12044
▁stead	-12045
▁swift	-12046
▁tapes	-12047
atching	-12048
ornness	-12049
▁Barber	-12050
▁Billie	-12051
▁Coffee	-12052
▁Crocod	-12053
▁Isabel	-12054
▁Lillie	-12055
▁Riding	-12056
▁Strong	-12057
▁beaten	-12058
▁chalks	-12059
▁coughs	-12060
▁detail	-12061
▁droopy	-12062
▁ducked	-12063
▁festiv	-12064
▁ladies	-12065
▁neater	-12066
▁parcel	-12067
▁pucker	-12068
▁reader	-12069
▁ridden	-12070
▁steaks	-12071
▁superp	-12072
iversity	-12073
▁cameras	-12074
▁conflic	-12075
▁crashes	-12076
▁deepest	-12077
▁erupted	-12078
▁flicked	-12079
▁flicker	-12080
▁flopped	-12081
▁outcome	-12082
▁parades	-12083
▁private	-12084
▁rhythms	-12085
▁riddles	-12086
▁scaredy	-12087
▁spreads	-12088
▁syringe	-12089
▁whirred	-12090
▁Angelina	-12091
▁Clarissa	-12092
▁Skeleton	-12093
▁breathes	-12094
▁chimneys	-12095
▁dangling	-12096
▁dazzling	-12097
▁flipping	-12098
▁licenses	-12099
▁simplest	-12100
▁sniffles	-12101
▁spitting	-12102
▁survived	-12103
▁whizzing	-12104
▁Everytime	-12105
▁forgetful	-12106
▁grandbaby	-12107
▁hurriedly	-12108
▁thrilling	-12109
▁tradition	-12110
▁cigarettes	-12111
▁remarkable	-12112
▁comfortably	-12113
▁replacement	-12114
▁opportunities	-12115
Sm	-12116
ING	-12117
Sit	-12118
des	-12119
ebe	-12120
idy	-12121
ius	-12122
pie	-12123
yla	-12124
œAh	-12125
Grab	-12126
Toys	-12127
boom	-12128
ikki	-12129
ilig	-12130
ippo	-12131
meow	-12132
rimp	-12133
œBye	-12134
▁Hot	-12135
▁Kel	-12136
▁Mal	-12137
▁Sel	-12138
▁Set	-12139
▁jer	-12140
▁woo	-12141
Sammy	-12142
Whatâ	-12143
arked	-12144
ottie	-12145
▁Gigg	-12146
▁Lori	-12147
▁Maia	-12148
▁Mist	-12149
▁Sami	-12150
▁bust	-12151
▁garl	-12152
▁mash	-12153
▁pest	-12154
Butter	-12155
iraffe	-12156
irteen	-12157
œDaddy	-12158
▁Blake	-12159
▁China	-12160
▁Donna	-12161
▁Dream	-12162
▁Great	-12163
▁Manny	-12164
▁Marta	-12165
▁Nikki	-12166
▁Round	-12167
▁Shell	-12168
▁alike	-12169
▁basil	-12170
▁dials	-12171
▁dilig	-12172
▁frant	-12173
▁glory	-12174
▁goods	-12175
▁risen	-12176
▁tiles	-12177
▁torch	-12178
▁Brandy	-12179
▁Celery	-12180
▁Gertie	-12181
▁Kelsey	-12182
▁Police	-12183
▁Quacky	-12184
▁Sister	-12185
▁advant	-12186
▁buzzes	-12187
▁cranky	-12188
▁feeder	-12189
▁judged	-12190
▁noodle	-12191
▁outrun	-12192
▁piglet	-12193
▁prized	-12194
▁rounds	-12195
▁runway	-12196
▁sawing	-12197
▁squirm	-12198
▁stalls	-12199
▁stomps	-12200
▁tidier	-12201
▁unwrap	-12202
▁Barbara	-12203
▁Cooking	-12204
▁balcony	-12205
▁bundled	-12206
▁comment	-12207
▁cowgirl	-12208
▁endless	-12209
▁feature	-12210
▁fighter	-12211
▁insists	-12212
▁inspect	-12213
▁mustard	-12214
▁nibbles	-12215
▁peeling	-12216
▁recital	-12217
▁rowboat	-12218
▁scoring	-12219
▁shooter	-12220
▁sixteen	-12221
▁variety	-12222
Greetings	-12223
▁arriving	-12224
▁believes	-12225
▁bristles	-12226
▁fighters	-12227
▁floaties	-12228
▁greeting	-12229
▁headband	-12230
▁includes	-12231
▁relation	-12232
▁secretly	-12233
▁sheepish	-12234
▁sounding	-12235
▁splinter	-12236
▁stressed	-12237
▁trapping	-12238
▁unzipped	-12239
▁scribbles	-12240
▁struggles	-12241
▁underwear	-12242
▁billboards	-12243
▁moderation	-12244
▁paramedics	-12245
▁summertime	-12246
▁compliments	-12247
▁recommending	-12248
▁stubbornness	-12249
▁foreshadowing	-12250
AA	-12251
ES	-12252
Ho	-12253
Pr	-12254
Wo	-12255
ja	-12256
▁7	-12257
▁8	-12258
Cra	-12259
Del	-12260
God	-12261
Mil	-12262
NAP	-12263
Rob	-12264
awk	-12265
dia	-12266
iti	-12267
vor	-12268
zzz	-12269
▁cy	-12270
Bear	-12271
Mimi	-12272
Pass	-12273
Turn	-12274
anas	-12275
azel	-12276
boos	-12277
toed	-12278
▁Ale	-12279
▁Gor	-12280
▁Pal	-12281
▁Rod	-12282
▁bol	-12283
▁cav	-12284
▁unc	-12285
▁yay	-12286
aging	-12287
arium	-12288
bling	-12289
match	-12290
ouble	-12291
plash	-12292
smith	-12293
stack	-12294
there	-12295
verse	-12296
▁Flip	-12297
▁Lara	-12298
▁Mixy	-12299
▁Pepe	-12300
▁SNAP	-12301
▁Stat	-12302
▁Upon	-12303
▁boop	-12304
▁heed	-12305
▁pure	-12306
Nobody	-12307
minded	-12308
ointed	-12309
onight	-12310
rapist	-12311
serted	-12312
▁Bears	-12313
▁Bessy	-12314
▁Biggy	-12315
▁Blood	-12316
▁Emmaâ	-12317
▁Hazel	-12318
▁Jesse	-12319
▁Lydia	-12320
▁Nanny	-12321
▁Otter	-12322
▁Scamp	-12323
▁Speed	-12324
▁Wanda	-12325
▁brief	-12326
▁cacti	-12327
▁choke	-12328
▁curse	-12329
▁dumps	-12330
▁pluck	-12331
▁repay	-12332
▁slaps	-12333
▁swell	-12334
▁Around	-12335
▁Cassie	-12336
▁Goldie	-12337
▁Louisa	-12338
▁Trevor	-12339
▁banner	-12340
▁razors	-12341
▁supper	-12342
▁wailed	-12343
▁wilted	-12344
▁yanked	-12345
▁Knowing	-12346
▁applied	-12347
▁artists	-12348
▁closets	-12349
▁echoing	-12350
▁grunted	-12351
▁jeweler	-12352
▁juggled	-12353
▁marvell	-12354
▁motherâ	-12355
▁partied	-12356
▁pranced	-12357
▁protest	-12358
▁splashy	-12359
▁swatted	-12360
aculously	-12361
specially	-12362
▁Swimming	-12363
▁blossoms	-12364
▁cactuses	-12365
▁haystack	-12366
▁inserted	-12367
▁meanings	-12368
▁muttered	-12369
▁advantage	-12370
▁conflicts	-12371
▁entertain	-12372
▁everytime	-12373
▁overnight	-12374
▁policemen	-12375
▁preferred	-12376
▁sentences	-12377
▁sniffling	-12378
▁squawking	-12379
▁squeaking	-12380
▁therapist	-12381
▁containers	-12382
▁downstream	-12383
▁flickering	-12384
▁smoothness	-12385
▁splattered	-12386
▁zigzagging	-12387
▁responsibly	-12388
▁measurements	-12389
▁recommendations	-12390
Ru	-12391
gh	-12392
',"	-12393
Her	-12394
ima	-12395
not	-12396
olk	-12397
olo	-12398
Park	-12399
aced	-12400
azzy	-12401
eers	-12402
gent	-12403
life	-12404
star	-12405
they	-12406
▁Ban	-12407
▁Jin	-12408
▁Kar	-12409
▁Nic	-12410
▁Nor	-12411
▁Pan	-12412
▁Scr	-12413
▁Sha	-12414
▁Sna	-12415
▁cit	-12416
▁coz	-12417
▁dim	-12418
▁dun	-12419
▁los	-12420
▁owe	-12421
▁tus	-12422
Peter	-12423
emons	-12424
erald	-12425
hadow	-12426
organ	-12427
œJack	-12428
œThey	-12429
▁ABCs	-12430
▁Aren	-12431
▁Comp	-12432
▁Golf	-12433
▁Iggy	-12434
▁Mara	-12435
▁Wild	-12436
▁emot	-12437
▁inqu	-12438
▁intr	-12439
▁rumm	-12440
▁toot	-12441
▁wary	-12442
▁zone	-12443
Cheese	-12444
belief	-12445
lected	-12446
œSorry	-12447
▁Cream	-12448
▁Ginny	-12449
▁Lacey	-12450
▁Sheep	-12451
▁Wings	-12452
▁filth	-12453
▁glues	-12454
▁leafy	-12455
▁reins	-12456
▁ruins	-12457
▁sawed	-12458
Imagine	-12459
alities	-12460
behaved	-12461
reverse	-12462
riosity	-12463
▁Cotton	-12464
▁Gently	-12465
▁Jemima	-12466
▁Marble	-12467
▁Snappy	-12468
▁Stuart	-12469
▁chests	-12470
▁coiled	-12471
▁dismay	-12472
▁explos	-12473
▁flutes	-12474
▁forces	-12475
▁habits	-12476
▁option	-12477
▁sorrow	-12478
▁surger	-12479
▁teases	-12480
▁terror	-12481
▁volunt	-12482
▁werenâ	-12483
aterpill	-12484
treating	-12485
▁Georgie	-12486
▁Trouble	-12487
▁assured	-12488
▁channel	-12489
▁harshly	-12490
▁jiggled	-12491
▁luckier	-12492
▁merrily	-12493
▁passage	-12494
▁puffing	-12495
▁shaving	-12496
▁similar	-12497
▁sunburn	-12498
▁suppose	-12499
▁valuing	-12500
▁visible	-12501
▁wetness	-12502
▁Rosemary	-12503
▁calmness	-12504
▁emotions	-12505
▁faithful	-12506
▁flooding	-12507
▁hideaway	-12508
▁poisoned	-12509
▁quitting	-12510
▁rattling	-12511
▁resolved	-12512
▁savoring	-12513
▁swingset	-12514
▁thirteen	-12515
▁unharmed	-12516
▁Butterfly	-12517
▁appearing	-12518
▁crackling	-12519
▁disbelief	-12520
▁exception	-12521
▁exercised	-12522
▁eyeshadow	-12523
▁farmhouse	-12524
▁gleefully	-12525
▁interests	-12526
▁luxurious	-12527
▁persisted	-12528
▁rainwater	-12529
▁twitching	-12530
▁washcloth	-12531
▁Especially	-12532
▁blacksmith	-12533
▁permitting	-12534
▁protective	-12535
▁Grandmother	-12536
▁frantically	-12537
▁paintbrushes	-12538
Congratulations	-12539
▁thoughtfulness	-12540
AR	-12541
sk	-12542
ww	-12543
œF	-12544
▁$	-12545
for	-12546
hop	-12547
ibi	-12548
raw	-12549
sha	-12550
who	-12551
zes	-12552
▁Ac	-12553
▁bi	-12554
▁ir	-12555
Ella	-12556
Life	-12557
Soup	-12558
Toby	-12559
Want	-12560
aleb	-12561
coon	-12562
idel	-12563
iped	-12564
irds	-12565
nold	-12566
riff	-12567
unts	-12568
▁10,	-12569
▁Bes	-12570
▁Heâ	-12571
▁Ivy	-12572
▁Pir	-12573
▁Sea	-12574
▁Syl	-12575
▁cla	-12576
▁lat	-12577
▁pry	-12578
▁sug	-12579
Magic	-12580
maker	-12581
olish	-12582
owner	-12583
stone	-12584
▁Andi	-12585
▁Bibi	-12586
▁Corn	-12587
▁Drew	-12588
▁Hood	-12589
▁Isab	-12590
▁Move	-12591
▁Pass	-12592
▁Roxy	-12593
▁Ruff	-12594
▁Sari	-12595
▁Soap	-12596
▁dong	-12597
▁frol	-12598
▁loss	-12599
▁moan	-12600
▁orig	-12601
▁pier	-12602
▁vows	-12603
▁wavy	-12604
acular	-12605
making	-12606
rolled	-12607
▁Donny	-12608
▁Firew	-12609
▁Gracy	-12610
▁Guess	-12611
▁Phill	-12612
▁Shade	-12613
▁Sonia	-12614
▁Sugar	-12615
▁Wanna	-12616
▁ached	-12617
▁baaed	-12618
▁bared	-12619
▁blend	-12620
▁bolts	-12621
▁decre	-12622
▁plump	-12623
▁plums	-12624
▁sidel	-12625
rinkles	-12626
▁Daisyâ	-12627
▁Doodle	-12628
▁Driver	-12629
▁Franny	-12630
▁Lastly	-12631
▁Months	-12632
▁Morris	-12633
▁Nearby	-12634
▁Radish	-12635
▁Samuel	-12636
▁Sheila	-12637
▁colony	-12638
▁croaks	-12639
▁finest	-12640
▁losers	-12641
▁mooing	-12642
▁ravens	-12643
▁sizzle	-12644
▁snored	-12645
▁spoilt	-12646
▁tackle	-12647
▁wisest	-12648
ilarious	-12649
▁Frances	-12650
▁Jeffrey	-12651
▁admires	-12652
▁chuckle	-12653
▁collars	-12654
▁crafted	-12655
▁divided	-12656
▁drained	-12657
▁flaming	-12658
▁guiding	-12659
▁haunted	-12660
▁pausing	-12661
▁potions	-12662
▁powders	-12663
▁privacy	-12664
▁product	-12665
▁quarter	-12666
▁reddest	-12667
▁richest	-12668
▁scrapes	-12669
▁screens	-12670
▁sheriff	-12671
▁sighing	-12672
▁surgery	-12673
▁Daughter	-12674
▁bedrooms	-12675
▁craziest	-12676
▁firewood	-12677
▁flitting	-12678
▁fourteen	-12679
▁glinting	-12680
▁jealousy	-12681
▁markings	-12682
▁matchbox	-12683
▁painters	-12684
▁ponytail	-12685
▁products	-12686
▁sensible	-12687
▁spotless	-12688
▁squashed	-12689
▁strutted	-12690
▁Amazingly	-12691
▁Curiosity	-12692
▁flickered	-12693
▁horrified	-12694
▁motorbike	-12695
▁sidelines	-12696
▁squealing	-12697
▁brightness	-12698
▁delicately	-12699
▁hamburgers	-12700
▁spectacular	-12701
:"	-12702
At	-12703
Bo	-12704
Gl	-12705
NO	-12706
ji	-12707
'!"	-12708
?'.	-12709
afe	-12710
hoo	-12711
urf	-12712
uto	-12713
Pink	-12714
aley	-12715
beat	-12716
ecil	-12717
ench	-12718
give	-12719
oint	-12720
test	-12721
œDad	-12722
▁Eng	-12723
▁Fix	-12724
▁dut	-12725
▁ted	-12726
▁unp	-12727
Bunny	-12728
ament	-12729
antic	-12730
etern	-12731
ieces	-12732
imate	-12733
maybe	-12734
paper	-12735
tails	-12736
udges	-12737
▁Bell	-12738
▁Burt	-12739
▁Fast	-12740
▁Gaby	-12741
▁Gill	-12742
▁Real	-12743
▁Tomy	-12744
▁Zeke	-12745
▁cure	-12746
▁laps	-12747
▁mult	-12748
▁poof	-12749
▁sobs	-12750
▁tech	-12751
▁wasp	-12752
People	-12753
ounces	-12754
person	-12755
uments	-12756
▁Allig	-12757
▁Cecil	-12758
▁Cocoa	-12759
▁Emmie	-12760
▁Glass	-12761
▁House	-12762
▁Joyce	-12763
▁Laure	-12764
▁Ronny	-12765
▁Slimy	-12766
▁amuse	-12767
▁buyer	-12768
▁citiz	-12769
▁cloak	-12770
▁eerie	-12771
▁etern	-12772
▁giddy	-12773
▁ident	-12774
▁moles	-12775
▁oohed	-12776
▁packs	-12777
▁pawed	-12778
▁picky	-12779
▁progr	-12780
▁tangy	-12781
▁tusks	-12782
▁unzip	-12783
▁vases	-12784
iration	-12785
▁Anchor	-12786
▁Blocks	-12787
▁Cookie	-12788
▁Disapp	-12789
▁Harvey	-12790
▁Junior	-12791
▁Making	-12792
▁Pigeon	-12793
▁Richie	-12794
▁School	-12795
▁Sharks	-12796
▁Sleepy	-12797
▁Square	-12798
▁ashore	-12799
▁cooing	-12800
▁corrid	-12801
▁dearly	-12802
▁heater	-12803
▁latest	-12804
▁longed	-12805
▁prepar	-12806
▁skulls	-12807
▁typing	-12808
▁weaved	-12809
spassing	-12810
▁Honesty	-12811
▁blender	-12812
▁farmerâ	-12813
▁grilled	-12814
▁leashes	-12815
▁massive	-12816
▁mothers	-12817
▁pitched	-12818
▁pounded	-12819
▁produce	-12820
▁rattled	-12821
▁shyness	-12822
▁storing	-12823
▁swished	-12824
▁tougher	-12825
▁Margaret	-12826
▁Michelle	-12827
▁clicking	-12828
▁clucking	-12829
▁collapse	-12830
▁engineer	-12831
▁features	-12832
▁flagpole	-12833
▁gestured	-12834
▁granddad	-12835
▁pondered	-12836
▁slippers	-12837
▁smoothed	-12838
▁speckled	-12839
▁Caterpill	-12840
▁dizziness	-12841
▁eagerness	-12842
▁hilarious	-12843
▁reindeers	-12844
▁souvenirs	-12845
▁cartwheels	-12846
▁diligently	-12847
▁grumpiness	-12848
▁sheepishly	-12849
▁skateboard	-12850
▁personality	-12851
En	-12852
IT	-12853
Su	-12854
ns	-12855
▁(	-12856
Ahh	-12857
Bra	-12858
Woo	-12859
œHe	-12860
œit	-12861
▁CR	-12862
▁du	-12863
Baby	-12864
Bobo	-12865
Donâ	-12866
Lion	-12867
Show	-12868
True	-12869
Zero	-12870
avin	-12871
care	-12872
down	-12873
hoot	-12874
oops	-12875
ssss	-12876
stem	-12877
sure	-12878
tale	-12879
uice	-12880
urly	-12881
zzle	-12882
▁Cop	-12883
▁Fig	-12884
▁Mee	-12885
▁New	-12886
▁Tan	-12887
▁Wor	-12888
▁fal	-12889
▁gig	-12890
▁jig	-12891
▁kil	-12892
Bella	-12893
Found	-12894
Snowy	-12895
allie	-12896
annon	-12897
iders	-12898
ouchy	-12899
overs	-12900
queak	-12901
ships	-12902
table	-12903
umbly	-12904
▁Amie	-12905
▁Anny	-12906
▁Best	-12907
▁Cory	-12908
▁Dark	-12909
▁Five	-12910
▁Hana	-12911
▁Iris	-12912
▁Joeâ	-12913
▁Juan	-12914
▁Miaâ	-12915
▁Sack	-12916
▁Sail	-12917
▁Tiff	-12918
▁bale	-12919
▁chem	-12920
▁cock	-12921
▁crop	-12922
▁numb	-12923
▁olds	-12924
▁pits	-12925
▁tags	-12926
▁unhe	-12927
▁wilt	-12928
Repeat	-12929
▁Curly	-12930
▁Fruit	-12931
▁Gavin	-12932
▁Karla	-12933
▁Keith	-12934
▁Misty	-12935
▁bearâ	-12936
▁caret	-12937
▁cases	-12938
▁feeds	-12939
▁fewer	-12940
▁maths	-12941
▁swarm	-12942
▁weave	-12943
edience	-12944
œThereâ	-12945
▁Alexis	-12946
▁Caulif	-12947
▁Grandd	-12948
▁Jimmyâ	-12949
▁Manuel	-12950
▁Wiggle	-12951
▁attend	-12952
▁boldly	-12953
▁bullet	-12954
▁former	-12955
▁glossy	-12956
▁inquis	-12957
▁kettle	-12958
▁magpie	-12959
▁meaner	-12960
▁ripest	-12961
▁sliced	-12962
▁spinny	-12963
▁sugary	-12964
▁uneasy	-12965
▁waddle	-12966
▁washer	-12967
▁wilder	-12968
▁wildly	-12969
keletons	-12970
▁English	-12971
▁Richard	-12972
▁Shannon	-12973
▁arrival	-12974
▁bandaid	-12975
▁beaches	-12976
▁darkest	-12977
▁drummer	-12978
▁duckies	-12979
▁familyâ	-12980
▁fortune	-12981
▁fossils	-12982
▁grouchy	-12983
▁harbour	-12984
▁imitate	-12985
▁majesty	-12986
▁mopping	-12987
▁overall	-12988
▁pathway	-12989
▁peddled	-12990
▁teddies	-12991
▁threats	-12992
▁toddled	-12993
▁toppled	-12994
▁Broccoli	-12995
▁Dolphins	-12996
▁cultures	-12997
▁describe	-12998
▁directly	-12999
▁gigantic	-13000
▁perspect	-13001
▁produced	-13002
▁provides	-13003
▁snarling	-13004
▁villager	-13005
▁Happiness	-13006
▁Sprinkles	-13007
▁explosion	-13008
▁stumbling	-13009
▁afternoons	-13010
▁boundaries	-13011
▁salesperson	-13012
▁Disappointed	-13013
EE	-13014
œJ	-13015
Fun	-13016
Kim	-13017
Mix	-13018
New	-13019
OOM	-13020
ald	-13021
gum	-13022
rer	-13023
woo	-13024
yle	-13025
Doll	-13026
Love	-13027
Mike	-13028
Play	-13029
Rose	-13030
affy	-13031
gies	-13032
irly	-13033
orey	-13034
ulty	-13035
used	-13036
vert	-13037
œMax	-13038
▁Aya	-13039
▁Bel	-13040
▁Ear	-13041
▁Oil	-13042
▁bon	-13043
▁ome	-13044
▁sis	-13045
▁wee	-13046
▁zap	-13047
Ellie	-13048
bbies	-13049
enter	-13050
ierre	-13051
mower	-13052
riana	-13053
shake	-13054
spect	-13055
sport	-13056
tingu	-13057
ydney	-13058
▁Amyâ	-13059
▁Dada	-13060
▁Davy	-13061
▁Hard	-13062
▁Hill	-13063
▁Jing	-13064
▁Karl	-13065
▁Riko	-13066
▁Rino	-13067
▁Stir	-13068
▁Wool	-13069
▁doze	-13070
▁gown	-13071
▁mumâ	-13072
▁tart	-13073
everse	-13074
orance	-13075
orting	-13076
verest	-13077
▁Ahead	-13078
▁Corey	-13079
▁Learn	-13080
▁Minty	-13081
▁Sissy	-13082
▁Tuffy	-13083
▁accur	-13084
▁chore	-13085
▁crisp	-13086
▁dares	-13087
▁doubt	-13088
▁grind	-13089
▁inner	-13090
▁overc	-13091
▁pinks	-13092
▁posed	-13093
▁punch	-13094
▁ramps	-13095
▁renew	-13096
▁surge	-13097
▁tourn	-13098
Believe	-13099
Rainbow	-13100
Warning	-13101
elderly	-13102
▁Pierre	-13103
▁Potato	-13104
▁Shrimp	-13105
▁Statue	-13106
▁armour	-13107
▁attent	-13108
▁choked	-13109
▁draped	-13110
▁fished	-13111
▁igloos	-13112
▁lapped	-13113
▁meanie	-13114
▁nailed	-13115
▁neared	-13116
▁peaked	-13117
▁revved	-13118
▁spatul	-13119
▁splits	-13120
▁surfed	-13121
hocolate	-13122
▁Adriana	-13123
▁Greenie	-13124
▁Halfway	-13125
▁Napping	-13126
▁Scruffy	-13127
▁barbers	-13128
▁carrier	-13129
▁cockpit	-13130
▁extingu	-13131
▁fulfill	-13132
▁funnier	-13133
▁illness	-13134
▁mailmen	-13135
▁peopleâ	-13136
▁punched	-13137
▁rabbitâ	-13138
▁scanned	-13139
▁shivers	-13140
▁stubbed	-13141
ependable	-13142
▁Marianna	-13143
▁Skipping	-13144
▁critters	-13145
▁entirely	-13146
▁evenings	-13147
▁fearless	-13148
▁glorious	-13149
▁internet	-13150
▁pigtails	-13151
▁quarrels	-13152
▁shiniest	-13153
▁speakers	-13154
▁ticklish	-13155
▁villages	-13156
▁weekends	-13157
▁amusement	-13158
▁caretaker	-13159
▁cleverest	-13160
▁earthworm	-13161
▁festivals	-13162
▁gardeners	-13163
▁lawnmower	-13164
▁longingly	-13165
▁mailboxes	-13166
▁neighborâ	-13167
▁punishing	-13168
▁rectangle	-13169
▁transport	-13170
▁unplugged	-13171
▁broomstick	-13172
▁constantly	-13173
▁dandelions	-13174
▁detectives	-13175
▁lighthouse	-13176
▁questioning	-13177
▁recognizing	-13178
▁celebrations	-13179
Sc	-13180
Caw	-13181
Cle	-13182
Owl	-13183
Zip	-13184
ika	-13185
ram	-13186
rex	-13187
▁Ja	-13188
▁Oy	-13189
Andy	-13190
Duck	-13191
Mail	-13192
Rock	-13193
acam	-13194
aden	-13195
amie	-13196
arch	-13197
etti	-13198
fect	-13199
iego	-13200
iful	-13201
imet	-13202
irus	-13203
thur	-13204
vels	-13205
wort	-13206
œDid	-13207
œTom	-13208
œYum	-13209
œyes	-13210
▁Cir	-13211
▁Fle	-13212
▁Ign	-13213
▁Ind	-13214
▁Moe	-13215
▁Poo	-13216
▁Sat	-13217
▁Sec	-13218
▁Tad	-13219
Buddy	-13220
Grace	-13221
Susie	-13222
Young	-13223
arper	-13224
eness	-13225
ennis	-13226
hoebe	-13227
ivers	-13228
jesty	-13229
omped	-13230
onica	-13231
▁Alec	-13232
▁Four	-13233
▁Otto	-13234
▁Skye	-13235
▁Timâ	-13236
▁Yuck	-13237
▁brew	-13238
▁buds	-13239
▁cham	-13240
▁diet	-13241
▁fain	-13242
▁fizz	-13243
▁gaps	-13244
▁hula	-13245
▁lave	-13246
▁poet	-13247
▁reas	-13248
▁saws	-13249
▁teen	-13250
bulous	-13251
cupine	-13252
deness	-13253
ighted	-13254
iously	-13255
worthy	-13256
œToday	-13257
▁Acorn	-13258
▁Color	-13259
▁Crazy	-13260
▁Hilda	-13261
▁Jonas	-13262
▁Lunch	-13263
▁March	-13264
▁Voice	-13265
▁angle	-13266
▁areas	-13267
▁death	-13268
▁grade	-13269
▁ladle	-13270
▁lambs	-13271
▁ponds	-13272
▁reeds	-13273
▁unfor	-13274
▁virus	-13275
acamole	-13276
because	-13277
htaking	-13278
ingshot	-13279
ophones	-13280
pitched	-13281
▁Arthur	-13282
▁Chippy	-13283
▁Dreams	-13284
▁France	-13285
▁Gerald	-13286
▁Harper	-13287
▁Lemons	-13288
▁Melina	-13289
▁Number	-13290
▁Parrot	-13291
▁Sydney	-13292
▁Trucky	-13293
▁basics	-13294
▁begins	-13295
▁betray	-13296
▁clicks	-13297
▁client	-13298
▁fellow	-13299
▁lowest	-13300
▁madder	-13301
▁nerves	-13302
▁newest	-13303
▁posted	-13304
▁rushes	-13305
▁slider	-13306
▁snooze	-13307
▁sulked	-13308
▁tingly	-13309
▁toasty	-13310
▁uneven	-13311
▁unsafe	-13312
▁unwell	-13313
▁yachts	-13314
œGoodbye	-13315
▁Chester	-13316
▁Hearing	-13317
▁Jumping	-13318
▁Majesty	-13319
▁Pickles	-13320
▁Slither	-13321
▁Squeeze	-13322
▁basking	-13323
▁concern	-13324
▁copying	-13325
▁daycare	-13326
▁erasing	-13327
▁grasses	-13328
▁greener	-13329
▁hobbies	-13330
▁locking	-13331
▁payment	-13332
▁program	-13333
▁renewed	-13334
▁rounded	-13335
▁Learning	-13336
▁Patience	-13337
▁Whatever	-13338
▁centimet	-13339
▁citizens	-13340
▁confetti	-13341
▁fabulous	-13342
▁handling	-13343
▁journals	-13344
▁lavender	-13345
▁overcame	-13346
▁prisoner	-13347
▁rudeness	-13348
▁scowling	-13349
▁smashing	-13350
▁sprouted	-13351
▁stumbles	-13352
▁swooping	-13353
▁waddling	-13354
▁Sunflower	-13355
▁attacking	-13356
▁fairytale	-13357
▁fragrance	-13358
▁guacamole	-13359
▁heartbeat	-13360
▁insistent	-13361
▁medicines	-13362
▁photograp	-13363
▁reminders	-13364
▁slingshot	-13365
▁someplace	-13366
▁stitching	-13367
▁unscrewed	-13368
▁zigzagged	-13369
▁chattering	-13370
▁deliveries	-13371
▁hesitantly	-13372
▁overcoming	-13373
▁spaceships	-13374
▁Reluctantly	-13375
▁apologizing	-13376
▁approaching	-13377
▁bookshelves	-13378
▁inquisitive	-13379
▁trustworthy	-13380
▁Miraculously	-13381
▁breathtaking	-13382
OU	-13383
œT	-13384
?''	-13385
Bee	-13386
EEP	-13387
Six	-13388
Wee	-13389
apa	-13390
doh	-13391
ems	-13392
mit	-13393
ton	-13394
zed	-13395
▁"'	-13396
▁Ah	-13397
▁Di	-13398
▁Mu	-13399
▁NO	-13400
▁Sy	-13401
▁ki	-13402
Bees	-13403
Find	-13404
Hmmm	-13405
Luna	-13406
Paul	-13407
Spid	-13408
aris	-13409
ateo	-13410
eezy	-13411
inic	-13412
love	-13413
mine	-13414
oise	-13415
rive	-13416
ruit	-13417
woof	-13418
▁Ink	-13419
▁adj	-13420
▁amb	-13421
▁pom	-13422
▁tit	-13423
▁unb	-13424
Brown	-13425
Poppy	-13426
aters	-13427
eresa	-13428
erest	-13429
fight	-13430
iguel	-13431
nyard	-13432
odies	-13433
onday	-13434
poles	-13435
▁Cand	-13436
▁Chom	-13437
▁Coal	-13438
▁Cont	-13439
▁Flop	-13440
▁Jada	-13441
▁Jana	-13442
▁Paws	-13443
▁Said	-13444
▁Wine	-13445
▁Zane	-13446
▁crad	-13447
▁dash	-13448
▁dayâ	-13449
▁educ	-13450
▁fert	-13451
▁lack	-13452
▁mums	-13453
▁plea	-13454
▁poll	-13455
▁publ	-13456
▁rins	-13457
▁rugs	-13458
▁taco	-13459
▁unra	-13460
Almost	-13461
Cheers	-13462
asting	-13463
ooping	-13464
ragile	-13465
rieked	-13466
œMolly	-13467
œthank	-13468
▁Bones	-13469
▁Croco	-13470
▁Diego	-13471
▁Dolls	-13472
▁Jaden	-13473
▁Margo	-13474
▁Mateo	-13475
▁Peach	-13476
▁Prisc	-13477
▁Selma	-13478
▁Throw	-13479
▁Turns	-13480
▁Willa	-13481
▁Windy	-13482
▁Words	-13483
▁bendy	-13484
▁bulls	-13485
▁coast	-13486
▁ditch	-13487
▁diver	-13488
▁drips	-13489
▁dying	-13490
▁eater	-13491
▁flesh	-13492
▁fragr	-13493
▁glint	-13494
▁knead	-13495
▁menus	-13496
▁paste	-13497
▁roles	-13498
▁snows	-13499
▁taxis	-13500
▁techn	-13501
▁treet	-13502
ception	-13503
goodbye	-13504
▁Cheryl	-13505
▁Dennis	-13506
▁Easter	-13507
▁Hailey	-13508
▁Higher	-13509
▁Novels	-13510
▁Phoebe	-13511
▁Repeat	-13512
▁Sheena	-13513
▁badges	-13514
▁belief	-13515
▁biking	-13516
▁camels	-13517
▁cement	-13518
▁cheery	-13519
▁clinic	-13520
▁creaky	-13521
▁dozing	-13522
▁evenly	-13523
▁ferris	-13524
▁fidget	-13525
▁fruity	-13526
▁garlic	-13527
▁icicle	-13528
▁liking	-13529
▁manner	-13530
▁mopped	-13531
▁multip	-13532
▁omelet	-13533
▁pauses	-13534
▁pinchy	-13535
▁pitchf	-13536
▁poorly	-13537
▁pumped	-13538
▁scenes	-13539
▁system	-13540
▁ticked	-13541
▁untidy	-13542
▁watery	-13543
ferences	-13544
gettable	-13545
▁Allowed	-13546
▁Feather	-13547
▁Moments	-13548
▁Spiders	-13549
▁Wiggles	-13550
▁adopted	-13551
▁campers	-13552
▁errands	-13553
▁fishies	-13554
▁heavens	-13555
▁limping	-13556
▁postbox	-13557
▁pyjamas	-13558
▁racecar	-13559
▁shoebox	-13560
▁spatula	-13561
▁sprayer	-13562
▁tiniest	-13563
▁weaving	-13564
Chocolate	-13565
▁Watching	-13566
▁adjusted	-13567
▁avoiding	-13568
▁barnyard	-13569
▁betrayed	-13570
▁bustling	-13571
▁collects	-13572
▁director	-13573
▁doghouse	-13574
▁frighten	-13575
▁handfuls	-13576
▁hesitate	-13577
▁incident	-13578
▁melodies	-13579
▁persuade	-13580
▁pressure	-13581
▁scribble	-13582
▁shrieked	-13583
▁snatches	-13584
▁steadily	-13585
▁treating	-13586
œSometimes	-13587
▁Adventure	-13588
▁Crocodile	-13589
▁Delighted	-13590
▁Priscilla	-13591
▁baseballs	-13592
▁bubblegum	-13593
▁depending	-13594
▁galloping	-13595
▁nighttime	-13596
▁obedience	-13597
▁porcupine	-13598
▁raspberry	-13599
▁reception	-13600
▁shrugging	-13601
▁skeletons	-13602
▁volunteer	-13603
▁adventurer	-13604
▁mattresses	-13605
▁meaningful	-13606
▁relaxation	-13607
▁Butterflies	-13608
▁Cauliflower	-13609
▁inspiration	-13610
▁perspective	-13611
▁preferences	-13612
▁restaurants	-13613
▁announcement	-13614
▁unforgettable	-13615
▁Congratulations	-13616
!!	-13617
Sn	-13618
Hen	-13619
OAR	-13620
Per	-13621
Yep	-13622
apt	-13623
nas	-13624
pop	-13625
▁50	-13626
▁Kn	-13627
Boom	-13628
Pick	-13629
athe	-13630
atty	-13631
auce	-13632
gedy	-13633
outs	-13634
œOne	-13635
▁Isa	-13636
▁Jed	-13637
▁Nad	-13638
▁Sit	-13639
▁Viv	-13640
▁Zoo	-13641
▁abs	-13642
▁aqu	-13643
▁doc	-13644
▁gur	-13645
▁mas	-13646
▁oar	-13647
▁var	-13648
▁vig	-13649
▁wed	-13650
Bravo	-13651
cloud	-13652
illow	-13653
inner	-13654
irley	-13655
myard	-13656
ricia	-13657
stero	-13658
tweet	-13659
œWhoâ	-13660
▁911.	-13661
▁Ayla	-13662
▁Chip	-13663
▁Claw	-13664
▁Dash	-13665
▁Deer	-13666
▁Gear	-13667
▁Glen	-13668
▁Root	-13669
▁Russ	-13670
▁axes	-13671
▁brat	-13672
▁coax	-13673
▁feat	-13674
▁fres	-13675
▁litt	-13676
▁oily	-13677
▁pred	-13678
▁tilt	-13679
▁vain	-13680
angles	-13681
assion	-13682
ilizer	-13683
raying	-13684
urfing	-13685
vation	-13686
œhello	-13687
▁Build	-13688
▁Cheap	-13689
▁Elena	-13690
▁Flame	-13691
▁Grump	-13692
▁Helga	-13693
▁Hippo	-13694
▁Judge	-13695
▁Kimmy	-13696
▁Lemon	-13697
▁Lying	-13698
▁Maryâ	-13699
▁Reach	-13700
▁Story	-13701
▁Teach	-13702
▁Witch	-13703
▁Worms	-13704
▁Worry	-13705
▁apply	-13706
▁await	-13707
▁brats	-13708
▁clink	-13709
▁ferry	-13710
▁grave	-13711
▁graze	-13712
▁moose	-13713
▁snarl	-13714
▁veils	-13715
▁waggy	-13716
grandma	-13717
lexible	-13718
lvester	-13719
osaurus	-13720
osquito	-13721
ractice	-13722
▁Blinky	-13723
▁Elliot	-13724
▁Friday	-13725
▁Giggle	-13726
▁Jasper	-13727
▁Miguel	-13728
▁Monday	-13729
▁Swimmy	-13730
▁Teresa	-13731
▁Timmyâ	-13732
▁Tommyâ	-13733
▁Tricia	-13734
▁advert	-13735
▁aiming	-13736
▁bumper	-13737
▁cannon	-13738
▁cheeky	-13739
▁cranes	-13740
▁fitted	-13741
▁floods	-13742
▁grunts	-13743
▁hairst	-13744
▁hermit	-13745
▁hooted	-13746
▁huffed	-13747
▁hunted	-13748
▁jersey	-13749
▁jewell	-13750
▁lazily	-13751
▁neighs	-13752
▁planks	-13753
▁policy	-13754
▁public	-13755
▁puppyâ	-13756
▁radios	-13757
▁sneezy	-13758
▁wagons	-13759
Marriage	-13760
œAlright	-13761
▁Balloon	-13762
▁Bananas	-13763
▁Bathing	-13764
▁Further	-13765
▁Gorilla	-13766
▁Shirley	-13767
▁Whether	-13768
▁astound	-13769
▁chomped	-13770
▁dinners	-13771
▁earring	-13772
▁fainted	-13773
▁fluffed	-13774
▁keepers	-13775
▁limeade	-13776
▁longing	-13777
▁looping	-13778
▁mummies	-13779
▁obvious	-13780
▁peering	-13781
▁railing	-13782
▁reasons	-13783
▁schools	-13784
▁sibling	-13785
▁slurped	-13786
▁sparked	-13787
▁spinach	-13788
▁steamed	-13789
▁stinger	-13790
shadowing	-13791
▁Children	-13792
▁Climbing	-13793
▁Counting	-13794
▁Isabella	-13795
▁Original	-13796
▁Reliable	-13797
▁cleanest	-13798
▁cowgirls	-13799
▁eternity	-13800
▁farmyard	-13801
▁honestly	-13802
▁icecream	-13803
▁junkyard	-13804
▁leftover	-13805
▁negative	-13806
▁overalls	-13807
▁pathways	-13808
▁playmate	-13809
▁reassure	-13810
▁stamping	-13811
▁suitable	-13812
▁tadpoles	-13813
▁underest	-13814
▁woodland	-13815
▁Fireworks	-13816
▁Sylvester	-13817
▁afterward	-13818
▁blossomed	-13819
▁briefcase	-13820
▁carpenter	-13821
▁judgement	-13822
▁leftovers	-13823
▁mechanics	-13824
▁observant	-13825
▁pedalling	-13826
▁pinecones	-13827
▁pitchfork	-13828
▁resources	-13829
▁sharpened	-13830
▁sprinkler	-13831
▁strumming	-13832
▁swordfish	-13833
▁upsetting	-13834
▁vanishing	-13835
▁Dependable	-13836
▁barbershop	-13837
▁convincing	-13838
▁difficulty	-13839
▁lightening	-13840
▁persevered	-13841
▁satisfying	-13842
▁thundering	-13843
▁brilliantly	-13844
▁daydreaming	-13845
▁fascination	-13846
▁microphones	-13847
▁raspberries	-13848
▁demonstrated	-13849
▁reassuringly	-13850
'!	-13851
Ne	-13852
Se	-13853
Aww	-13854
Ray	-13855
Ste	-13856
Ugh	-13857
awr	-13858
awy	-13859
ici	-13860
iva	-13861
mes	-13862
nee	-13863
pom	-13864
top	-13865
zip	-13866
Ahhh	-13867
Aunt	-13868
Ball	-13869
Four	-13870
Jazz	-13871
Oink	-13872
aaah	-13873
ashy	-13874
bove	-13875
cest	-13876
elic	-13877
heet	-13878
oooo	-13879
raph	-13880
unes	-13881
œNot	-13882
▁"1,	-13883
▁Ada	-13884
▁Bly	-13885
▁Gri	-13886
▁Him	-13887
▁Kya	-13888
▁Pay	-13889
▁Rep	-13890
▁Shy	-13891
▁Suz	-13892
▁Tin	-13893
▁arc	-13894
Doggy	-13895
Lemon	-13896
Neigh	-13897
Share	-13898
Throw	-13899
affod	-13900
astle	-13901
ellie	-13902
essie	-13903
eteen	-13904
idden	-13905
ippee	-13906
iwork	-13907
otcha	-13908
ribut	-13909
ropri	-13910
venge	-13911
œGive	-13912
œTime	-13913
▁Aria	-13914
▁Biff	-13915
▁Bing	-13916
▁Cici	-13917
▁Dodo	-13918
▁Elmo	-13919
▁Emmi	-13920
▁Fizz	-13921
▁Gabe	-13922
▁Gord	-13923
▁Hero	-13924
▁Jaya	-13925
▁Lana	-13926
▁Macy	-13927
▁Marl	-13928
▁Part	-13929
▁Post	-13930
▁Puzz	-13931
▁Riya	-13932
▁Sing	-13933
▁Spud	-13934
▁Toot	-13935
▁brow	-13936
▁cork	-13937
▁dise	-13938
▁disp	-13939
▁fero	-13940
▁hasn	-13941
▁jugs	-13942
▁ling	-13943
▁nook	-13944
▁reds	-13945
▁tons	-13946
▁waft	-13947
Before	-13948
Enough	-13949
Rabbit	-13950
Splash	-13951
atives	-13952
celled	-13953
ictory	-13954
ribble	-13955
ricate	-13956
shirts	-13957
œThose	-13958
▁Baker	-13959
▁Boris	-13960
▁Craig	-13961
▁Ducks	-13962
▁Flynn	-13963
▁Hairy	-13964
▁Maggy	-13965
▁Marco	-13966
▁Paint	-13967
▁Porty	-13968
▁Reddy	-13969
▁Yield	-13970
▁award	-13971
▁beady	-13972
▁benef	-13973
▁booms	-13974
▁clang	-13975
▁clunk	-13976
▁fizzy	-13977
▁frost	-13978
▁occur	-13979
▁pyram	-13980
▁shuts	-13981
▁silli	-13982
▁subst	-13983
▁tacos	-13984
▁whips	-13985
▁wrest	-13986
Brownie	-13987
Promise	-13988
Reverse	-13989
Teacher	-13990
Whoever	-13991
ushroom	-13992
▁Blythe	-13993
▁Carlos	-13994
▁Harold	-13995
▁Lauren	-13996
▁Norman	-13997
▁Smiths	-13998
▁Sprite	-13999
▁Tillie	-14000
▁Tomato	-14001
▁astero	-14002
▁beings	-14003
▁chilli	-14004
▁corals	-14005
▁croiss	-14006
▁greens	-14007
▁hotdog	-14008
▁humbly	-14009
▁pickle	-14010
▁plunge	-14011
▁portal	-14012
▁pranks	-14013
▁racoon	-14014
▁reeled	-14015
▁ripple	-14016
▁shoved	-14017
▁tailor	-14018
▁tiptoe	-14019
▁trough	-14020
▁wading	-14021
▁weakly	-14022
Broccoli	-14023
iversary	-14024
ointment	-14025
▁Giraffe	-14026
▁History	-14027
▁Phillip	-14028
▁Popcorn	-14029
▁Someday	-14030
▁buttery	-14031
▁choking	-14032
▁freeing	-14033
▁glinted	-14034
▁lioness	-14035
▁obeying	-14036
▁orderly	-14037
▁patched	-14038
▁purples	-14039
▁revenge	-14040
▁safaris	-14041
▁seaside	-14042
▁session	-14043
▁smudged	-14044
▁stooped	-14045
▁various	-14046
▁Granddad	-14047
▁Painting	-14048
▁Thinking	-14049
▁agreeing	-14050
▁antennas	-14051
▁bellowed	-14052
▁commands	-14053
▁counters	-14054
▁crumbled	-14055
▁crunched	-14056
▁eighteen	-14057
▁fairness	-14058
▁fashions	-14059
▁grilling	-14060
▁grumpier	-14061
▁hallways	-14062
▁hungrily	-14063
▁laziness	-14064
▁lightbul	-14065
▁mermaids	-14066
▁pleading	-14067
▁practise	-14068
▁savannah	-14069
▁selected	-14070
▁silliest	-14071
▁strapped	-14072
▁upcoming	-14073
▁vacuumed	-14074
▁villains	-14075
▁watchful	-14076
▁Jellyfish	-14077
▁arranging	-14078
▁beekeeper	-14079
▁continues	-14080
▁education	-14081
▁elsewhere	-14082
▁handiwork	-14083
▁harvested	-14084
▁marvelled	-14085
▁propeller	-14086
▁rainstorm	-14087
▁unhealthy	-14088
▁University	-14089
▁recognised	-14090
▁regretting	-14091
▁ringmaster	-14092
▁tournament	-14093
▁triumphant	-14094
▁whimpering	-14095
▁adventuring	-14096
▁anniversary	-14097
▁appointment	-14098
▁centimeters	-14099
▁cooperative	-14100
▁competitions	-14101
▁photographer	-14102
▁relationships	-14103
▁accomplishments	-14104
2,	-14105
AT	-14106
Ge	-14107
Mo	-14108
Pl	-14109
rd	-14110
▁6	-14111
ANG	-14112
TOP	-14113
Was	-14114
Zap	-14115
arr	-14116
boy	-14117
bra	-14118
ibs	-14119
rog	-14120
say	-14121
see	-14122
ubb	-14123
▁Mc	-14124
▁aa	-14125
?!".	-14126
Dead	-14127
Honk	-14128
Lola	-14129
Over	-14130
Rawr	-14131
Spin	-14132
artz	-14133
ctic	-14134
cuff	-14135
dely	-14136
etch	-14137
grow	-14138
inny	-14139
ista	-14140
itor	-14141
kept	-14142
leaf	-14143
ques	-14144
rett	-14145
rows	-14146
suit	-14147
thon	-14148
umbo	-14149
œAny	-14150
œitâ	-14151
▁Art	-14152
▁Eli	-14153
▁Had	-14154
▁Mak	-14155
▁dew	-14156
▁eel	-14157
▁fry	-14158
▁huh	-14159
▁sam	-14160
Bobby	-14161
Ducky	-14162
March	-14163
Marry	-14164
Ollie	-14165
Spicy	-14166
Spray	-14167
Water	-14168
Whose	-14169
Yield	-14170
abbed	-14171
adise	-14172
arned	-14173
ented	-14174
essor	-14175
feree	-14176
issor	-14177
llect	-14178
orous	-14179
pleas	-14180
somet	-14181
stage	-14182
strid	-14183
œLucy	-14184
▁BEEP	-14185
▁Cell	-14186
▁Cour	-14187
▁Fake	-14188
▁Hugs	-14189
▁Jeep	-14190
▁Kira	-14191
▁Mail	-14192
▁Mill	-14193
▁Olga	-14194
▁Pres	-14195
▁Ross	-14196
▁Wish	-14197
▁alas	-14198
▁auth	-14199
▁blub	-14200
▁eyed	-14201
▁foil	-14202
▁hars	-14203
▁joll	-14204
▁joys	-14205
▁kitt	-14206
▁phra	-14207
▁pian	-14208
▁slim	-14209
▁sole	-14210
▁symp	-14211
▁thor	-14212
▁yeah	-14213
Gotcha	-14214
Higher	-14215
Pretty	-14216
Yippee	-14217
ashion	-14218
behave	-14219
inated	-14220
œReady	-14221
œThese	-14222
▁Above	-14223
▁Alina	-14224
▁Brett	-14225
▁CRASH	-14226
▁Cable	-14227
▁Caleb	-14228
▁Cally	-14229
▁Clear	-14230
▁Denny	-14231
▁Dotty	-14232
▁Greed	-14233
▁Jared	-14234
▁Jesus	-14235
▁Lilli	-14236
▁Marsh	-14237
▁Mitch	-14238
▁Paper	-14239
▁Perry	-14240
▁Snick	-14241
▁Spicy	-14242
▁Stars	-14243
▁Zebra	-14244
▁bacon	-14245
▁beams	-14246
▁broad	-14247
▁cargo	-14248
▁diner	-14249
▁disgu	-14250
▁disre	-14251
▁elves	-14252
▁frees	-14253
▁hired	-14254
▁innoc	-14255
▁kiddo	-14256
▁kilos	-14257
▁latch	-14258
▁mazes	-14259
▁mules	-14260
▁ports	-14261
▁pretz	-14262
▁skept	-14263
▁spool	-14264
▁tulip	-14265
▁unatt	-14266
▁unimp	-14267
▁yards	-14268
autiful	-14269
entions	-14270
ization	-14271
▁Arnold	-14272
▁Astrid	-14273
▁Ferris	-14274
▁French	-14275
▁Fright	-14276
▁Gordon	-14277
▁Mellie	-14278
▁Slinky	-14279
▁Spotty	-14280
▁Wonder	-14281
▁againâ	-14282
▁allows	-14283
▁angles	-14284
▁antics	-14285
▁archer	-14286
▁braids	-14287
▁burped	-14288
▁cavity	-14289
▁daffod	-14290
▁duckie	-14291
▁entert	-14292
▁growth	-14293
▁heeded	-14294
▁intrig	-14295
▁ironed	-14296
▁jigsaw	-14297
▁kayaks	-14298
▁levels	-14299
▁plains	-14300
▁quartz	-14301
▁raging	-14302
▁rudely	-14303
▁shaved	-14304
▁teenag	-14305
▁tender	-14306
▁waists	-14307
ropriate	-14308
▁Happily	-14309
▁Keeping	-14310
▁Painter	-14311
▁Peeking	-14312
▁bandana	-14313
▁banners	-14314
▁beavers	-14315
▁blouses	-14316
▁coldest	-14317
▁escapes	-14318
▁fancier	-14319
▁fullest	-14320
▁grandad	-14321
▁kitties	-14322
▁knitted	-14323
▁origami	-14324
▁referee	-14325
▁rounder	-14326
▁slowing	-14327
▁steeper	-14328
▁tissues	-14329
▁unpleas	-14330
osquitoes	-14331
▁Mushroom	-14332
▁Pinching	-14333
▁aquarium	-14334
▁clumsily	-14335
▁controll	-14336
▁distress	-14337
▁drumming	-14338
▁handcuff	-14339
▁hydrated	-14340
▁jingling	-14341
▁neighing	-14342
▁nineteen	-14343
▁operator	-14344
▁paradise	-14345
▁retrieve	-14346
▁roasting	-14347
▁snorting	-14348
▁swimmers	-14349
▁tweeting	-14350
▁wrinkles	-14351
▁Firefight	-14352
▁Happyland	-14353
▁Listening	-14354
▁addressed	-14355
▁assistant	-14356
▁belonging	-14357
▁cancelled	-14358
▁collector	-14359
▁eachother	-14360
▁encounter	-14361
▁ferocious	-14362
▁foolishly	-14363
▁hairstyle	-14364
▁intricate	-14365
▁mightiest	-14366
▁reflected	-14367
▁relatives	-14368
▁scuttling	-14369
▁seatbelts	-14370
▁seventeen	-14371
▁Frightened	-14372
▁fertilizer	-14373
▁inspection	-14374
▁speechless	-14375
▁unattended	-14376
▁entertained	-14377
▁generations	-14378
▁suggestions	-14379
▁difficulties	-14380
▁Foreshadowing	-14381
▁transformation	-14382
Ad	-14383
CK	-14384
©.	-14385
Big	-14386
Gas	-14387
Mon	-14388
Pay	-14389
Pop	-14390
Ros	-14391
aco	-14392
bag	-14393
con	-14394
fty	-14395
gae	-14396
iam	-14397
sal	-14398
uns	-14399
yum	-14400
▁Ve	-14401
▁ut	-14402
Ding	-14403
Drop	-14404
Glad	-14405
Hide	-14406
Joey	-14407
Pull	-14408
Ruby	-14409
Slow	-14410
Woah	-14411
Work	-14412
amps	-14413
apes	-14414
enus	-14415
ires	-14416
mock	-14417
otor	-14418
rrrr	-14419
seat	-14420
ston	-14421
ucch	-14422
zoom	-14423
œbut	-14424
▁Air	-14425
▁Bal	-14426
▁Bot	-14427
▁Cal	-14428
▁Caw	-14429
▁Dar	-14430
▁Dor	-14431
▁Ele	-14432
▁Mam	-14433
▁Mit	-14434
▁Rae	-14435
▁Tap	-14436
▁Yul	-14437
▁kiw	-14438
▁non	-14439
▁spa	-14440
▁zag	-14441
Henry	-14442
James	-14443
Lucky	-14444
Momma	-14445
Polly	-14446
Queen	-14447
arten	-14448
ceful	-14449
eteer	-14450
green	-14451
ophie	-14452
pling	-14453
print	-14454
these	-14455
œTake	-14456
œYeah	-14457
œwhat	-14458
▁Atty	-14459
▁BOOM	-14460
▁Bull	-14461
▁Cats	-14462
▁East	-14463
▁Gene	-14464
▁Heel	-14465
▁Lill	-14466
▁Mika	-14467
▁Sock	-14468
▁Thea	-14469
▁Tick	-14470
▁Tori	-14471
▁Wilf	-14472
▁arch	-14473
▁asse	-14474
▁chor	-14475
▁chug	-14476
▁core	-14477
▁croc	-14478
▁dawn	-14479
▁dren	-14480
▁entr	-14481
▁eyeb	-14482
▁mete	-14483
▁pats	-14484
▁pegs	-14485
▁pity	-14486
▁role	-14487
▁skid	-14488
▁sooo	-14489
George	-14490
Mister	-14491
Poison	-14492
Wheeee	-14493
eteria	-14494
redict	-14495
uccess	-14496
▁Achoo	-14497
▁Benji	-14498
▁Cheep	-14499
▁Clean	-14500
▁Dalia	-14501
▁Dovey	-14502
▁Freck	-14503
▁Georg	-14504
▁Guard	-14505
▁Lucie	-14506
▁Marge	-14507
▁Morty	-14508
▁Pitch	-14509
▁Puffy	-14510
▁River	-14511
▁Slide	-14512
▁Smart	-14513
▁Snake	-14514
▁Socks	-14515
▁Sofie	-14516
▁Steak	-14517
▁Steam	-14518
▁advis	-14519
▁claim	-14520
▁coals	-14521
▁concl	-14522
▁conso	-14523
▁crate	-14524
▁dents	-14525
▁fiery	-14526
▁forms	-14527
▁gnome	-14528
▁limit	-14529
▁motiv	-14530
▁mould	-14531
▁pelic	-14532
▁pixie	-14533
▁scowl	-14534
▁snout	-14535
▁width	-14536
▁zucch	-14537
verance	-14538
▁Brenda	-14539
▁Clever	-14540
▁Danger	-14541
▁Knives	-14542
▁Lizard	-14543
▁Prunes	-14544
▁Russel	-14545
▁SPLASH	-14546
▁Sallie	-14547
▁Snakes	-14548
▁author	-14549
▁darken	-14550
▁enters	-14551
▁erases	-14552
▁forked	-14553
▁froggy	-14554
▁gluing	-14555
▁hopper	-14556
▁looser	-14557
▁medium	-14558
▁miners	-14559
▁mowing	-14560
▁oblige	-14561
▁piling	-14562
▁rinses	-14563
▁severe	-14564
▁soothe	-14565
▁spiral	-14566
▁squint	-14567
▁steamy	-14568
Squirrel	-14569
ergarten	-14570
together	-14571
▁Besides	-14572
▁Bradley	-14573
▁Diamond	-14574
▁Dorothy	-14575
▁Jogging	-14576
▁Matches	-14577
▁Peaches	-14578
▁Walking	-14579
▁babyish	-14580
▁burrows	-14581
▁cereals	-14582
▁chanted	-14583
▁curling	-14584
▁dipping	-14585
▁doggies	-14586
▁flipper	-14587
▁hammock	-14588
▁involve	-14589
▁liquids	-14590
▁mumbled	-14591
▁peasant	-14592
▁perhaps	-14593
▁prouder	-14594
▁returns	-14595
▁scarier	-14596
▁seeming	-14597
▁shaping	-14598
▁sunbeam	-14599
▁tragedy	-14600
▁violins	-14601
Excellent	-14602
hinoceros	-14603
▁Freckles	-14604
▁Spinning	-14605
▁babbling	-14606
▁cleverly	-14607
▁climbers	-14608
▁contract	-14609
▁devoured	-14610
▁drenched	-14611
▁dribbled	-14612
▁findings	-14613
▁galaxies	-14614
▁imagines	-14615
▁lightest	-14616
▁location	-14617
▁misunder	-14618
▁parentsâ	-14619
▁pyramids	-14620
▁respects	-14621
▁rosemary	-14622
▁scariest	-14623
▁shimmery	-14624
▁showered	-14625
▁snoozing	-14626
▁stinging	-14627
▁strongly	-14628
▁toddlers	-14629
▁treetops	-14630
▁truthful	-14631
▁twinkles	-14632
▁unfreeze	-14633
▁wildlife	-14634
▁zucchini	-14635
redictable	-14636
▁accessory	-14637
▁astounded	-14638
▁cafeteria	-14639
▁gentlemen	-14640
▁octopuses	-14641
▁puppeteer	-14642
▁qualities	-14643
▁spoonfuls	-14644
▁withstand	-14645
abracadabra	-14646
▁Throughout	-14647
▁assistance	-14648
▁disrespect	-14649
▁matchstick	-14650
▁profession	-14651
▁storeowner	-14652
▁unpleasant	-14653
▁appropriate	-14654
▁brightening	-14655
▁helpfulness	-14656
▁resourceful	-14657
▁trespassing	-14658
▁courageously	-14659
▁mysteriously	-14660
▁performances	-14661
▁straightened	-14662
▁deliciousness	-14663
▁knowledgeable	-14664
▁unpredictable	-14665
0.	-14666
IK	-14667
di	-14668
li	-14669
ta	-14670
za	-14671
!!"	-14672
!',	-14673
Ban	-14674
Sal	-14675
del	-14676
idd	-14677
ipt	-14678
pow	-14679
rus	-14680
spe	-14681
▁Wa	-14682
▁ug	-14683
....	-14684
Both	-14685
Buzz	-14686
Fish	-14687
Meet	-14688
Nope	-14689
Shut	-14690
amus	-14691
anya	-14692
colm	-14693
dern	-14694
hill	-14695
iara	-14696
imid	-14697
lett	-14698
long	-14699
oyal	-14700
ploy	-14701
turn	-14702
yuck	-14703
œlet	-14704
▁Ama	-14705
▁Mer	-14706
▁Six	-14707
▁Tam	-14708
[...]
